import numpy as np
import pandas as pd
import pickle
import base64
import bz2

import torch
import torch.nn as nn
import torch.nn.functional as F

import copy
from kaggle_environments.envs.hungry_geese.hungry_geese import Observation, Configuration, Action, row_col

N_ROWS = 7
N_COLS = 11
N_CELL = N_ROWS * N_COLS
max_moves = 200

ACTIONS = [
   Action.NORTH.name,
   Action.WEST.name,
   Action.SOUTH.name,
   Action.EAST.name,
]

class DuelingDQN(nn.Module):
    def __init__(self, actions, input_shape=(4, 4, 5)):
        super(DuelingDQN, self).__init__()
        self.actions = ACTIONS     
        self.conv = nn.Sequential(
            nn.Conv3d(1, 16, kernel_size=(1, 3, 3)),
            nn.ReLU(),
            nn.Conv3d(16, 32, kernel_size=(1, 2, 2)),
            nn.ReLU(),
        )
        conv_out_size = int(np.prod(self.conv(torch.ones(1, 1, *input_shape)).size()))
        # Advantages A(s, a)
        self.fc_a = nn.Sequential(
            nn.Flatten(),
            nn.Linear(conv_out_size, int(conv_out_size**0.5)),
            nn.ReLU(),
            nn.Linear(int(conv_out_size**0.5), len(actions))
        )
        # Values of state V(s)
        self.fc_v = nn.Sequential(
            nn.Flatten(),
            nn.Linear(conv_out_size, int(conv_out_size**0.5)),
            nn.ReLU(),
            nn.Linear(int(conv_out_size**0.5), 1)
        )
    
    def forward(self, state):
        conv = self.conv(state)
        val = self.fc_v(conv)
        adv = self.fc_a(conv)
        # Q(s, a) = V(s) + A(s, a)
        # Subtract the mean for stability
        return val + adv - adv.mean()


class Agent:
    def __init__(self, model, actions):
        self.model = model
        self.actions = ACTIONS
        self.prev_action = -1
    
    def get_action(self, obs_dict, config_dict):
        """
            State from env -> Board state -> Model -> Q-values -> Action
        """
        # Get the board state from the state passed
        state = self.edit_last_player_move(self.process_state(obs_dict, config_dict), self.prev_action)
        state = torch.FloatTensor(state).view(1, 1, 4, 4, 5)
        q_values = self.model(state)
        if self.prev_action != -1:
            q_values[0][self.prev_action] = -1000
        action_id = torch.argmax(q_values)
        self.prev_action = self.get_opposite_idx_move(action_id)
        return self.actions[action_id]
    
    def process_state(self, obs_dict, config_dict):
        observation = Observation(obs_dict)
        configuration = Configuration(config_dict)
        player_index = observation.index
        b_state={
            'blank': 0, # Empty cell
            'x': -1, # Head of opponent player
            'h': 1, # Head of current player
            'b': -2, # Body cell
            'f': 2, # Food
        }
        # строим доску
        board = b_state['blank'] * np.zeros(N_CELL).astype(int).reshape((N_ROWS, N_COLS))
        # гуси
        geese = observation.geese
        for goose in geese:
            for i, cell in enumerate(goose):
                row, col = row_col(cell, configuration.columns)
                board[row][col] = b_state['b']
        for i in range(len(geese)):
            if(len(geese[i]) <= 0):
                continue
            head_row, head_col = row_col(geese[i][0], configuration.columns)
            if player_index == i:
                board[head_row][head_col] = b_state['h']
            else:
                board[head_row][head_col] = b_state['x']
        # food
        foods = observation.food
        for food in foods:
            food_row, food_col = row_col(food, configuration.columns)
            board[food_row][food_col] = b_state['f']
        board = self.centroid_agent(board, geese[player_index][0], configuration)
        return board
    
    def get_opposite_idx_move(self, idx):
        # ['NORTH', 'WEST', 'SOUTH', 'EAST']
        return (idx + 2) % 4
    
    def edit_last_player_move(self, board, idx_opposite):
        # ['NORTH', 'WEST', 'SOUTH', 'EAST']
        # CENTER BOARD [3, 5]
        if idx_opposite == 0:
            board[2][5] = -2
        elif idx_opposite == 1:
            board[3][4] = -2
        elif idx_opposite == 2:
            board[4][5] = -2
        elif idx_opposite == 3:
            board[3][6] = -2
        board_rot = np.zeros((7, 5))
        for i in range(7):
            for j in range(5):
                board_rot[i][j] = board[5 - j][2 + i]
        small_boards = np.array([
            board[:4, 3:8],
            board_rot[:4],
            board[3:, 3:8][::-1, ::-1],
            board_rot[3:][::-1, ::-1],
        ])
        return small_boards
    
    def centroid_agent(self, board, head, configuration):
        head_row, head_col = row_col(head, configuration.columns)
        # X is [0, 11), center is 5
        # Y is [0, 7), center is 3
        dX = head_col - 5
        dY = 3 - head_row
        # Сдвиг строк - dY
        if dY != 0:
            board = np.vstack((board[-dY:], board[:-dY]))
        # Сдвиг колонок - dX
        if dX != 0:
            board = np.hstack((board[:, dX:], board[:, :dX]))
        return board
    
    def agent(self, obs_dict, config_dict):
        return self.get_action(obs_dict, config_dict)
    
    def __call__(self, obs_dict, config_dict, *args, **kwargs):
        return self.get_action(obs_dict, config_dict)

state_dict_dump = b'QlpoOTFBWSZTWd6sKowAMeh/////////////////////////////////////////////4G6fHpkFap9d3dsc7kve3BN728u+7733bmbPu++29p59W26+z3s8zbu62bO33b3sFvq+5u+t6x9e232+gyu3ld7t333b72FAGizb2d2ZSumKt27bbaqttUs2qs5yu2OKUNix3x9fXd197easJXd3bPd32773zPLe71S7V4nXNauvdq++3JXzdzvsPKvWe33b21PZvTl6APV2Upq2tjY01bbd3fXrr1F29tdu9Zb3attfbe93reLZVUze5vrVJ7drN63r27N2uW47oVHr6+97dyd83Le+a73vd8d2+qUe2ouqtbKTYrbAXndJ0tlVu44thzrZsMqntiJe2589mt9nXu7tvu29zr1y+9qe3u6Ovs31rL13rr3ujpRaNp9tzbyD73X33zrZdurr060vdynpYyp+RoCYmg1MGJo0NAaAAE1PRpgmTSn4ExGTE00xGTIwQyGTRkNGRgIxGEZNBk0ZNGjE0wCYAJgJgmDUwCYJqh1U/xGmTEDTQaANGhMADSYTAAAAmGowE0xMRgAAEwaABo1MNNAExoAEwTEaNMTIaaZGho0yYmBTaZAUOqfgIZMQBhGhoDIBoAmCYAJmjTTQGhpplPI00NGk9ANNTTQwjCaYTTTRiaajyU/RPEaMhNoaanoxTYjQGU2gxNKn+QJgaqGTAQIBM00whpgQGJoBoaNNCYZFNNgENGmmRpiGmjE000nlM0ZT0YKYMRNiYmqn7QNMmmjTTTTTIJmmI1NlNoCZoU9pkGQZVCqn5ABAAAEyACaYEMTJiaaaGQ0NNNNMmjQNJhoNGQAGQA0NNADIaNBMGhiYTJMAaNANGmqe0aA0maDEmChEAhAIAZNAaNAJhGQA0aYTQxNDQ00aNATNMgaaVPzQGmgNTamNAA0DINAmAmJgANDQDTRpNMAGgEwU8VLu2KhpPJKQYWxMiYgE3AACXtjcwAhCArXgAiGMQCEIYZSkAhCFMACKACIACTABJsAATYACbQAQygIAAQcJaCg1wxDYEy8oAJAApfh2cdusaC/5HWM4HAsMwSBOyRxpUJ4QCw4gEmlJam4DlOFYxfXLAAAEL6vkOTrH+TNYtx23D3r5kC3I03lsANpZFqV2s9bUHn3zQHNalLS8ctztRu8O3QQgA4yhDAAqGBAQgIACvUKUBAB5wgAJeMAARSEEAnpUQQCADdcxQARgirDxsQZOxdhXwRmBQaOcQhVgiDGUdV2Px5KrlyC8+dRxbTGJuF8Hlv8ifIrRVWnG6LqLREv6BbGgZR8AYsAiw0nMV+OGGDPhC8EeIPDsDcoQgObTbEqNJqWk5CV2yCzHI9RSgYGs/Oa3nSN2te2A/DJJdB4gPBf5k+2aGjHpWTbZmN1s4DE8gAh+hw1JgAXIpcP+3vOAC7qoBAEE/cnmWkpxCsjYQBjBtTHA26G0krdFiFeRtfA5B9BU3eQcY6TxPAxf55zhOIymni/x98jQcbb1e50z/faZ4yvvlHzCSiktcX3IGCF3qmXQcvz5Bbnk7Yr6g77dbQvB3Vc4AF94o7ClVyVPCxuX/6dx2PWcrveLbFb6CYicKbCdjm3/M7mj4FbIP+KvAPgAKwLwSvQAI4AK9/8rTABH2qbxkO+qVXx4rYDFLQARla3BtvL6jA4AJMAFyU3aG5JYpCxo6i5XbFp83U3IlDYCW3Urz30+LORHPikZ8upF9V0V+0+c5suSqWZqCr1Prglk0EAl7L07u0ZjQlufgUGtlqAABP/zKpJq1hukPsd6gs+3EIIvBMPoACG2qvx2YXsu7TcB5rV9Nx3zCSXmuBlP0ZvGK+phO+R0m32VeUtkTIzIwwspA7AAkCAAaNC3tQARqW8GKqUJflQAJSz/taqeEZ5hJYHNc6lgF49/EviymV2Tf2rw1kr3GmljjRtE9UPliZqIRFHPQRPPxaTL6vTRoLK/REBV43Ih2lUMT0LUIAqIUtYBt246WJEISxUZbeFdEP1XjZ2oAEoy7/DoI5e6JCsI2za6fpvOQ7Ezg6VW8xOx5tZSWnncbjH3kDk6iyVnI1mb7uQ50s4CCAG+DEDQj5FhDjehyyYAJKGhfegAEaNGpqAteESADZmtE98CWQ703ZGIPC/kQVl3rMoB0YFUMYHDb19yXmd/QbDr0V08kQ9pXxh2ZkgYWyEg7VG9lwdwWIaJzxbfJAArf9tj44qIp1uOyDDTb+ubdu2Ik+9PZl7fhrBqQ8mUq4l14aqg+nJubwlQSC8yYuVT9aasAWwADfZiOna092CaV7I9xEj0DxLKwkvh4C70xRmC9Ks2gEQAI8hJADZj5lTENvyvNDKLWhTD2564SI/BF31JFnX1vkFVkxbWgQqW+3/Ge2WEABsMKiTAC6W88Otc1oaHGcC/6KVkQMnLatqlfViwvorvVOQjQv7118qX3UNNONpAQgAJ4vjUpTnw0HyyXtPg4RKD3OCRnNL0ir49eVV/RJRhx7T7+z+nGzsw/miu0dDY08+71eGx9ItKJp41xPyxaGUbKnDgIJ6wFbiGYMN35XXz2CbANlOqLTCzgXM1JPZ9/JbESRL5xUCJFuLOz+3tuIJ8rc89kP2ThEOPz9XESYXxe2AbFa7mMHc8WcL+veqI5qA8v4RbSl8LaXo8hW/bTQuh8A3GHR87X2FuHIUj7Dwbo9eCr0tNINrrKymQk7zMwMnm28ilgB2KFIiEXmpo2SHrJJnGaGCEctNTdTa3SdS/7/EkPp+r/yvivxKOjCF3AOsenbKSAlP/Z7jWHXzn7PEZstL3LDDTxQMktCA1cgfZd2rig+t8S4Y4URpbrnh2GNN6ctQRT8rMbrB7dz6b6MSCm/44RkpRFwGUqGIAFIAZC2p3QheeLx5DH86oN1QrrH/C9V6qmXwjxkuPWQOU+8kFX5bJhM7QczoaHaSXk2LznzjRqqNyIegQ4hBaUzfgCXQY4GTQyUEJ5eQm8CP47WoDf82GwMvbctOiffKv/6202VVj6rqdCN9OZozQ1+iJw8mrNgRWvPtgIljy4cAAhlTWEvuZMLIKBg+GmlRjvqrssGdub8tQt8uS0p5eO977ST+ZqJnx3vD+rOu+nYeMAFc+rZbkeyatpSIuSEDuo1qli9IAJVs1YALTrFk/BLPzOYC8gYKtg8Dvh8G2Tho/pNdbiMfN6tt0HkxG/S+A/v5yph4qs6VihpBeO//GP16U41AH9KAQ9QZH+R3h+bc/Z94YQknd9WHNcL5N1Cocc+mU50nw5bQaDTd9qSzofcrJIxv1+tp6FoGvgHpdodwFIPA+JudiW/org66ZgHcYF17g4lUDwSSA5iqG/A8zb2SB4Vk9iIieNl/Y+Yzd8TRq0H+27SEzC5NP3nRvpWcGZGmMqksU6/B+X44EtBNiYN0vZ9t2Q4xJFvjA+5ofUPbw3lrMMtbcjhHBeIV3GI/Le924zoTEFLbD8sFw2QZOvZXUZ3puS4kPYkrAdrgHk5x1ixZhSSJ+48R6VzOCS5tz581GZy0VLKvCj5s1cMXhobOqTnq4PT9rRzYjr55mkepfzFSAZX4oPEuAgAgHXY1ONUQUgERy+0RVH3PA01Dgflvdpp/Ly9tlP4t/3v6ui1i3MwG7admO3Szu+LY+pRmtctzT3qTh6uUslW3QcHixmGmPh53Ml50KQOgMZEsLD139+MmWjfR5+duprj+9z6BMNguXOw3RTb4z08J1gj81mBrkAAKwSDf7MP3mPjpKRc3Logi9+tlBp28vsBPRcKbvX8mQyL+RpcZ5flUM445fhwcdhULKnEA41MSz321Qe4Vs2pVHOwDaSARd2FEArlx+KOq5ZRJUDIBGJhBXHUhMC4cLCuPl8CjzW4I0y6hHEbOvzkjDHxmKs33E3LFrQ9kZwaiIC1fMMOi2vhkCXkOWqRHzJ9eOLh4RySZ/BG2rlW1K2Dr22QSIwrbJklpk9ncz45MYisGxgEq6FJwRUL9ixBcTvwuIdJHE8AzRSCWQfbjDaeaRSh+ybgpCJFdY35gNNYsirZm2ED8WDtIf4wBGz7sq6wobqZUWv5zY1U97j1F0kT6MKUkhub6/xeSZjX8uG8IABQgA2QA4emFemesSj0YxITKVf2SLvpad/1uExE3YXcLdgeRql/54WjtulxfOh7huKhLKu/QHGeBmqL2QB4GEAMIEYDTiTgd+Jh8jUWk3VHBp8MqpaJYMLp79gf7W5MBh92294xIo0ZNPFH28ey6dbPZOCWb6/ZXb+bMUvi99Li2/L5bXZdh6eWR62G0b+a7jheZQUEvQPBghgFjyl+LWld9pYkOO7O+cyQZZRK0J/IzU5p9wHwwhQHQYpLR43a0PwIOfeu1H8H19MDdWcH/thPR2MEwULABcsSEX22kkMZ/OVxuIpABGEJBzHst18P4HPaBrf1PCYJ6+2ex2h7MSRyZ7TdSQuOw9e7flfOT9fA4vLsS16Zvz0FDqp83Qil4wtvsiIC9JoWf2Q4Y1Udxo8gaUI+ueO67rOf5Z5vAd55xPOa63N/mmJ52ZiVGRPyn37c63aucPagRCC1T4fzzGwZvjSZY4SGHa599CEeEyM4fKJi/FGInXZRgeLmdcxQUmZ+/ultJwlAO3+GCx6CBgDBNzukNIJHgzPptSey6BSzLTtRiZCACS7UwsyCXQTJj5+8ZiH16UVBeJYRY1oSWo4uQUSMSz2o8X3XYqujtWM6encmlxaXIdzfMfE/qyIgog5FxQ/Eku5k+fpeGyq0j4jTZb3L0Ib8ZIvk9xEBm6Hhm8Rax4F4/6Lmvdrb0K315vofbvXWv2gMGcvUs1wvi320ZjhEet0AYZAsiSAFQueMotKHq7w8mcj66Vs3wIOb/HHkGf3Z8lcHdyBfRH6eIUyHOJe0wysAO8ctBvTZkPRqyNH5xssEBnPjNmOLFA95GjHJR7lMkl9NWczaM6XacSB5ueuLTNfJJhcMJs12x+7cmQJMyO7M5DjMf4f223HJ8Xi5eXWQaxbz15KaUIVLbdbbp6qQ3kI9Ze35asmfxLzXbnOJJ8mX6FPVZL1OVdBvANMVhoU1xpSTPBIJ+VZVPiTsI7J5X10kpacJy4hGhNyQ8CsFdQvaRn/nSxPvXfixx6HDVMim7Yi+fIa7/PZ9rEaN5S51u7BeFI2gbR2YIMMeI1O3GJSRegDA3frW1i4SoLsLGGXenUG7m6QH9vdN/Onfrqf/Oc9LQoriessd4y41X6fB0+HYEu7nZZ15cAkKm7E4ArTD24qcVwUGFYk7rqgPGJzxPtyC6LVTGB2BhKiFhAwUA4JO/7X6aDNmsR5O3Spp4a+vus3hRHHUh8fq2rvSaK/s/7MMgL7Bq1qxBIsJAIAyV/qJ6xg/f3sPrhgWW6OTCybj75fMt3RS5jX36TWwFy3DxsLX4dbMLq+CGEsVuNlCsrMXmZ4YaejyynTehXVAEnbAvqEY57nsOyFawDmCldhllDAcTCzbytCAQBPHg+V7Dde2pjmQEaBnRSeiyeoz1PHQNAg+zOlyZRaaoG6Bu+ZuprKeZX89Py5ESR01a5wEAEVq+vm7VlZVZoYmgVhw1pMpxEwsDA9wIrLZUR4ylJ6+0QxtJ2IrelwtJn4Doc/+U2imavIeNb2IL44vZavhhFidluN3esmBfIRjKKHm+JySWM6CQ4GHy9QMqRGBsIWDRCjV68SEEDDCbwg1Byu2WqtI76RRLmA7PM9tRMTwezi3Zl9soXLKH7Ts9s3NzNoUgXIYcwqcP29srS3VWUCtkasa9+hNKgAk07iPssPy3/fj5CVtPvHvj+c0jU1dDSKl0ziZMeGzH1gSUnrfw7mWfkD5IZyHKL5SO/0bo36Ic1yyvNuc6J6f5Rqc68pMzzNanKZNTf7AotR1KlhbaT1htu7pVIrlegMho5gmGI2dERGh6PtESxIA3ACHL4rUaCxGiwl7y8b68KneL3OJVmHjXq3caxlD1MCQRwPPCyaOAjuRlzMBiCgoSjB/UQ6bwrROhYq+5bfzLRY1uK6Fh/o43aJR1dRQXCWrOBZmer4tX5jlC7YbtF3WPXnuwXDDYd0ZtgWN4EqucxejeF60OWUv86iB7Oygt0aW69O9Un+JEXvyt3o9usNKEPfee6L2dY/ooL5t9J2s9HOHJ6LfJja6Chxa8sniT9xEEjairYovqgxMAPEAjJr6BPHytQVdNXZ5jMlnYxR55eByDmnuthihKE01UjAx29Z7bwLTHNxJobvVkoysFSUhSaXjwYWHsVft3Ll+/1Zlv8O+7sMtOX6ucJ95HDcosu9vdEZZBT+2DQ69AOJsm8MheC9S36Ne6jyNodi2EAMM6gmMKBDy1xrlTj18PXW3GU3/+knqIM2OwliVMqR8xVChgBWkhCk/sd0Z5zDFYM6wkmprY6+AROmYVo0jh0/G5SNqlzkv8NNOTOaea+b0En8M/CfrAuPEfaYoEjV5SvvlnDfAbzg5DJPl2erTAIU58yrKObQW1PmfVqp7gRsZhdOR+097/U9d1sHf6+9U0Pav0BwfegYdNE269tYhJC7SI4z8GArc6MXbBMLQ9KCKlTBHMI87B/YUFyWru7cl3sLdxttrjEWMN9hGlk++emPLIyVqRn0u1P0RjdiqsmhM5valhRdvbNmzZpBJt6akd0YUrfbxoVGiFaWcoWmCcEc6mYvfyx+B+WjfMtvJZwzroQM3Nk+T7aSuzqmQm5MYeOhMHoTJaH/ipt3auJksvNv8s/yOY11Bil/tzD/ovv+nZBomy7BvJfta1jcE/WCyNPRuXo0oyMHPPQ6RhJpnUDnSRE40lKomItA7rvr+WNIuGERrtVCzKD/aa7b8VUuKBurG6ykEiLeGLARyxUDjA+Sj+SRASkIITgAUz/OZ5/MKlhmGM23ZvjI4X5eUB9uzHJt/s3g4TlaVT2tl9/Z9yfYfKHqYi33Bfr6j+I721C3VscRkpXH8T003mH83x5t7xNb1cSJgoLTKgM/E9YAIarm64ljxDktSlOgR5XksK7BntCFQxNKUBGm+Pz7XH2ZXd6B22v03re1W++/ay7xQzeyjkC/eRaf6hbBwfE1r2GMSMApqJHFGu6CFNVVRM4cRGj/oKFWHgzBTald3Ur1c/yyxgUWD4G46H12wsBBmCDdwvwg69qw0j6uYLehyhswXR7hiZfMaRynTtxMBUecRrygTGpxPUNvyC2jFXYKILYGGqaLlzkkls6TH1Gu2iWdDsZdfR9pI4fPQKKZReJZUKlofq00rVVHGocRwtEmAlt5wdYdVcB+zoax6VtoDR/ilQ1oysEJWnjkuzo5+0fvyFjyxnfQauGpmnm1fXvlNCeJLhba8ueMm099vWDrymSSZ0tKOf5xODbv6DYEEBtggXVyd2x/4Jw+G+xJ2UQ2ViVJkBoxkEDgKzR29V/Wz1VcftKnl99iV1apmTn2F/Y7swQZRQuUdC7bGFBMvTKCAMAIQ6u5JDo2CT0D5YQDkrske8gY+KeDf9ZYIo6m2724zU7URBATOT4dqfSDCph/dhzk6R+0jKJp7FVLPpYNc2ub9+rvDvV8QVQCdaA0xycs9i3t5KCNAMkSrYG55KyeFhr5+3xYQwAQOiQd1RPIU/txdU+yPg9txj5WZJ4O95Rq/poN2Ow0Flh6ZeEjKh0CPc4GloqXsxOUisyMpESi+I/r6HNETg9sULxs03hNVU2T0/vZ7nbVaXm7p7rdzkjAef/ZuOYk55F0HoLY/RPN1KEvpwNcZNXeMrwCgYMDk+MVP/qZIOnwccXfDCmp6Bw7PE56nXPvWFR38LAwtiXx9hdcBYILJMAeGTEo8WNvb3YZRKtLx4NRA66LmSw6oLceD3Nok3sccbvvmJUBBP1pggCCZ5qvysz06szjHjwRi3A2Y/GDLe02tcayIons76JjMv6hrwIGICZgQrb9obqBIf6bMtxa+23lXNwgHiPlFRKF1niu/zhnaCPZIidg3EsY6RdMYBCFDkdddtDUlIkbzlId2uQ8uTwF0UAMo9idugJzmcMr3f/KTc3+zp2Ev8vt8+TDz6Hih9tSub5T7DOoUkrCybQBBIRMBJBmrcODJjeOF+40VpDJ/wWtR5rbmQsjl9Sbb6vbpl2mwOd/77UGLq55fzkMo7RQCyQahuHM2PzDAODIcQBFngT0HucI2ADATgGIx+hyOaCcbz3U9jtgpxFl+fGR0PhoKle6ND3M5SKZqyQKbUQhCxoJ5pAm2Bg8rgBjKd2tAIEzmkI/CNE6K8wkJQGjV9eMUrr9xf7WVFXaaGJlgwWrzcuJsdHSr5kI+BeGlDm2sE9L3zNimBhHJNVaUOnTAQvamwk4CU+gRfbWm81F1m7WjqtngE9r20Js4TQHrpMd22ToAK/gAuemACQ1fFvc7T4a4mEIHoybaMLpzfNlTg4YCJlwmeXcFaJwtZ9xlflJZBRysxUevz0Tv6EWOU0Eo5wxrFqwXAcLyKTuQyDKke/IlU5up+4taIDxGDpd57l3XrU5/vZZ16h+ib91b0Lp1U2h2mLeutD8002Vc2WaNUQYylUUnOCbAN9vnELQULfjmalYIRHQJCuN1OU5DLHdOCMjL5KDWYuVQ3sPUtjJGYQEGvrE5wc4ubeKv1ZlRyrrAUQLpL2AdpTWAXScnYockgtFl2hKeqxa0/5K1wRjI2XdRmkqK3UZdnpl2Qd+R0uCx7s3DbD18O4WOPsXTD+QWqH74VF531auBWqgYE5dRrdxKN5jZmHUhAohYUi0n9z8ixuB39Y6EnVycuQyHCjVogILlfw8fFoUvz8cVa+3PJVnXhli9Q6Xo1iYvWh2oWAbqwAQ3HDZr6kFQKjpmlg0AQhsrJ58ChXlZT/TK71fnYUNv9KD5Xby2Gh3V41dUPPb78XKAkv64pH+CkQr0mZ6TIfu7ZqFTBL0v2pLwEcpgQz2sNdaOeSlG8EbyAWoLhD7QykkXnVJOkSeHs8cV9Cqtmre5nPMMYJqd8EpmlfXanpb6/wt20u5VN6ApBwlXt4OATIQhx9NJ4dkBjho98h8zZrAKoof2UXl8hFhngqql9eJZxvWheqxb5QzmPKPR30PZZwk09/adM7tYh3oup2mDVhCQRKWiB+sxBHAIuRtfTYjuIKGqmIF5DD9Af3cQyIpHBq18hhCZBYGsPxnj/FpUs9IOH5qoCmaZkg6M4IJEsS5wQQIcFXi80RhXu+lbkqLOzlAzfjwQYTbYIv2dzO3G6pB8pfskc300W1SZmI0yXaJnx6XSqqLSyEbZ0ETdWDI2kCleB74OPw/qLu5NR0MNsiToxI8xgv7I2ZT+GhwbPCqCGffcIYt62ZYfLCGKkUp7eLe4usumoH65nBl/+itNsDj5BP1MxWkEFvhLFb/9ugfKXAgwAK7qGAFh9hAL84Nel8YtUtw+bJ7RhLCTGMYxgMYAMYxjGAx5OTtCkzdXfRyNkxEf1rtRtdEHxqjQfNvV72pfmQwQgTzoYDO7nOGsepkywIL/t0ZQAlDaQmqVKhjYOo9YACogAUSACbwAVU4ExC9vrlTm3UHeQ2/BknJcXIyhq5G8VXuxGS5rcXtVZ79zJed9qP9la1FXVzjDy1PdH58wKCuDTcIDVAQGURRjEuQcDdVItI1uCL+76IwckUlDi5X0goaE2EuLqouYH0oWe9KzbI/n0qc7Ow3wUPNIrjqBqo2RLMQBmErDwCBoremDzDyuaOp1ZsZOAAqgJgWuXeMG0miaSgCdq4Y/Va3zBqSFCYwzv17A6RWu14jz/Wc08EHuP0Rloqr28hXbd7pKpTb1zeWGDIzOnbGros5fyp1cgnY9uEoEKGU8oAAssFj7wHCaSC0DAQKxgGXAYAgHS+td9n7m90/7fH9R6/BbToztLF0sy/y/uhH1b/DyQMJMM6fHvaDJPIA/itZVtqIuGkP91KA/fu+CGlCxX5kesPmQ1c24+iKx2RrRX67g0BsyopJisWT4At7vZW8Sf+iAkovvkAsI46aEGBSHYQnNb6Av/k6sayvUhOtHfCKAJUJMLiEoBAYhdArv6yX5wtvxH23c1Q9DS5ls/9A26zS5uCBAA/U+5NzEGykAe+OgeVWK/jk7bHPz6WnGKrCVKJX83kO7ngFel4SKt8tGD4S0croVatUvKmD4tEJzrjpRcCjMPBi6rGF3tjW2CBuG199a6z2AoKINCzdW+VRSDGuNmBRkeTCBChBIYc8AHKjGlUfiz57/rjKaKHyHl9XPd81Zfy82ZXKvGpafHE/DMxihkGnfTlWK66IenQt/1+tMiawQW0goPRpMrBxga8JXf+xpeWOjEQJMwwaPNtPwp37t+Z/s8OcBabjQQCWcxkzGUv16E6492k7q57Z6dpUBGCO/4sbgJ34rEXeBcnnT+nOYxgb/V8iazgEVLBlgABYcHMI6XBYCAMBAGFwpEwqKnY9mvm799oyORQxqpzGAvoX3sYT9SvZTNFFA3gqwYNk/YuS8rPpYa83BADT4UmH73o7LJ+26ckBiQPRnWPP+034fBjpKie31lZPzqtW77t2eYSLcG+TmcNndshSOi/qW70TZjTOdxAAFoAu6IkJMJEAATiAwqzJjHiQuoatyrM9laHT6Kx8GKtsiyge7svf42VhjcG3XDpogJI1BYwxG3yed1G16atpAANdbFgv3RHHJoB19h/lv6enQrHFWvcqaGMn6hOi8VZDUjt2eTbqyPkKyswDe/0d62DfFM0rcveSkIZ8HumZjcx6tJgIEvy88b6S2z6+Hn4exBKAF3CEC7A5ywGADgMHP3bdwlzRTk99DWdiHsXu212vyVrjFnKkHlZOpcPnKC8QnxLpIzVZLdkTVE+tXqj5t1ibalaYP5GIQOOVEbcTowPHtrjv8q742eQmH2HAw+y8PTZaT8VfbkVyzj/N34shDwV4pf2qWLdQtuQ+zx9WUyIBmytWj/ISCrpRbQ/C2WrSNzFnRwzgc+4xm4Bhk9CF+CaDQhLAvTCaDHYifinuF6VglKavvkj0t5n00qngq/r2G5ccW3tBuQJW4njOJOC07oR7Tn50nCXQBSQI0xirQ3N+XODFpE3/rTjCjAQcM9Ylu30cjadrp0Wn3OJCUfxRFHSV1uDtNZvKVEiIexokmcAU8CEMcuQSPtQv8Kc8oRMirPlDU8KJk/JQfwGBjwEF2C7hLAvouT6YrPZq15+37TlcG2a60Pwi9h3T4UO6WM31q2GThHESwLAOjSJUP/AhGSJsAvbNLTzYcnhDhh2JxR7Ooh+oYcPHVfCVFhKPSTYaa50yNvTvcvoVXmYLF66kYMDs2z5eM5s8YkgAFxH8R0YSH3EXt+Yz9o/oVOwrcNg5pZbEtekbMQdXRJMVwYMZRpyUHLBigzQA5QoWwLuAwbYMBdAusk53D4x8u/LH6GqF7VrpHv5wpPJX6f7e/wSbQdVTZiRpClhkreUHLTHuQkUpsqePXjH2EYB2eHsQRDAJlW7k4cc8CPdagYFLoU2ZDDX5krbD+hqzmhHq/h3wDgp8esWWBq4TPDnyUp1r/2ab3IyRjGMZsqTXnUECJWC5qEi+eCCWIjr2YbREFvsnhVntvNrb+rulcSZv7fK87tbAtoQUGAAIoYADAE0Ds83ny3pc7bT2bq01GF0uCXtMR9opjf/w0oFSsbC05YwO9o9uVK3LMh/sy2JgZ/oBfC0haClRw+d1ev+2z8xtHq+sRCqjr3sDsJAvHx832HjQl+/qbupE4Py9FP7zF1RYyg5NfpsQgBKR/2OOyFOoN/4akbNYmzn2kumt/HtCSNF94g0/iyYWXm9gmcjDuge1eEaa5dieqpHkFsb5UcQZDgNuUWsesA5t719P7N0iwb2vQtULtlr/shMM9fB4OHQdrp4GToDtuPfLGiNVSeJrjWDiboet1lpo5bBYODfW9W0cOGIDOqu1xP7W1+8g/LlXJO7VoUdt991Yf8V69FWOisOXdu2R2MuyTGxY3P8kU6i0OC4bRtvjn7mLWqmttkwAAmdgEqUNtOIa8iG5IzWf+B+PPLwuaTuJ94U1nvbTWxYHxeLuP83mgJVujPoGFfnPIR/kIwcgKTKC+G4kUdCUTeC1y9rLCz3NcvJUCZ7O0KXT1cs5Cuyw/rTeceqXnPyIr4m5DJlqo7wqs18Q15IPw9smc4FaZiut5Rh1On9fspHTiLRZHOnqZstl2TYJ9tXvbUQ+lTAiBrPR6pXsOfM3mV3vIF5BItKiqtsKATsAn7zF9VBE4gqfIBVYx7D3ibL051ooVT0/2cnoU0DsPtXwd04K85ucWz+k56dGFG43Av3cmd7eiYstxCY/rNBlD3UaVUjif/s3odPf+PYDhINqBurMfiga2wwarwhuM3bgY/+F5Zw9XPVGuNWFo5rtJqr67wvGczm9puDghhk+L5+ZwnRuYJXJQ+GX3syrIvkBQXtijrLjvWGp42P1prMv+J6kbXCuPwlf2O62d11L7Mk3WLHerTpl3mTLlFfm/OIVdrYzhplKWeMpDUmQQub3eQx6UoCW2hwwVlAeV8/xhYpxN3uwKBN6OSc+lCD/uqsKhCXelAgDf1s/sY1fb0IShNSvr4ptQ3OkWL65s7OQHIONszgPhE80Ajb+cxM11XoGfU96PbbP0yHn3Fe6ibhgt+lNEHXXoOvgbU0fnh9WQOaIN/U5DzfPVGuFMECnO/mP5sCgZsqZZHD2+d2mUavwvT829elGbJYJFDmvlAvrobIUOoZUI86Ch9bVcVuFP+bpgTMbZpKEq5RlQGTNttR37+y95LslMKn4H662BU55nNoFJwa8N3J5TmCYcv70lsYxqTFLG/R1NRYTc6mrbSvvm8S+63WzEd0m6QNwylpdDUSPjCxgYNBvQklbKO2HQbJc3ahNyftBFyVXktCCu0iM0+cnQCfNQUjMmTbV/42QoP6Wre94J3tFfXSsV4xRSwuh1btPSlJ3/fgXIEu94d1dK3ySzf4fmTGv8V+oBjRvurTe1i0hYErXKcSeBuwsb7qL4YawEUwg2MsXNEkZmj/PHsObt22KF5U+Zw78e1uDCtQplQYdQ4Nk/BNvwdQ1EkUHLNn8OKASYItiZbMs86e5HC4JUAZjDZHGu8KHod3aX8ktdbZ9sC4Bvpic/Q7vtHcD8LuUdwLFDsJ0JkmeHMJIn48btNJGfPkNXcbQ7WIjryPs3FNHSB7iDfE8tcFHwQ7b0Gl4o40fDf7AqFmz8/poQPRBLXIjenTy6e16+20/DArpbvXqziSPm02SXfKwKXY1AabFis+WQS/+reRtXMGfDI2ktwUXTfoL4O23M+5KBvC6z1d2m47R1uf1xp8T9f6XMGs1Y4bV0JSymFyKRIZR9uXA+4hd23XL7/TMzzfb/UYFdVQnZ1FXYFEuw2XztLw8g7DQCVHZZx/mKe3M7PkHZzcpysLJcyFV+nrQCD1ERTs/fk/c+zxNPo+PUn55balVqkq6hVCzqz4/sZ7mNq9jbtO/1GRYinBSiVVM03tQ0LLhbrLo1TUczd1p5sYqSauuPNTAdpxYmVe3qu8hoB5tpb22M1WNBvM9ON7eCqx1/rcR/105UaXnE/C/1rHs0i9urjO8qnjlH1PPu/7EGJ0uf9+egugaHEHakUFJDFA2G44wfP+RDAxXV4PSlF/mc7ztQ1biBqogAS/WqJiYQEnN5+txSFoRn9d8+RutKcJgkZGg5QPW+XZaS3IMfx2aDSXV7aNRGsqJ1Rhx7HRqwdWh5lYLOHWrIdE7aywV5O0XM1f5X1TXoLs2AYllPiT/MbzJDWu8j9PMi84JFQ016rf8GI5bHDoeVm5CSCl94t5exw11U1kNlbQdObFpqzURrzeuXhmGRwYEL4SM3koA/lZNqL6s/9iTZXnCa6M7dUjcH1eQdEUDzx5tGM/I3FTkZK+KpZDnxb8PD2InWfoINphX+hxIX+0CZBviJzN6NFwseLSi+swvCvU9JXQcF3lnKZRsAexJYa9qPNLe6B1b5BgdGxpK6Ux7Ro/CfmmdVdpmGKTqqsMd/XEjcSzo68UPi9xymetHdqulxvKyZabVfaiVLZrF7Ly+HLgBk95fstSf0lOe6Sp2GpmlRNk3tJ+c5Z8HeCWW2Onymw7o98fdkZptbnCcjsMwqgVtD4n9ihotOSaWS/b5b41TJac1K7yHeEYp1zpUmYa3J9fN+rWcUfrQaiYvZzP9A0FFq0NZWCdipGV4sMYp09ajY1t7NMzjHGNnz8fn00GyndxIciG+vWTOArDWGmw5GZ9BRLMYLiuYiurci2azj5kqnyg6acOytp3Iikjs4j2XqGo9VmLM9l16mBaI0g5FZaHU5cFpQuHlXCeKrLhWTWRAwUoxjhJ90PBkx7hmx995AeZIsUeEU7bXcOMxN0lem/L70Pt+BBHTNhnMLjhY9jRta6ePeqL8T1Y+ZAbYca7UUaX/UT0+jYt1NQchKyvWiJ3YSPraej1EizfsscHZ0J2+SKhkdi77qRqt5Ovj1nlZDTkvHJjevYPRI6szcoinUdtMNRr6mnQ5sramdpTPrWa8ZRGR0RKFG+umQE7w1XierjR3oHBjW2TpU/Q/mGQJw6v0L3WIxa02vzNonJDVUEX05vmw61v8bHPjY3uwJ/o1fV6pbWvzccl2Xg2nMnknbynTno9df8rulH7E3Eotu1XOm7Mbm6zZVvzhhWR/QtWND8BwaX7vcTn9zrJ0zvwqJRWId8euoljO2m32PX2iv/aR0Vwkq/BbcXpQMyQsSmY5yfglqbH4v+jM/t6/dfoSlPMG02PW/twu9Vh0YvfesUGnPeuHJ4xpfedGuz1JP/Nv3pCMt70XC2R3fInqO+vFzeuqqqYtknI+CzGzAZIZfpdI+9+x2FkCf6KwxaU/u8pMfE/gRTzhtsZQu3yNm1o8oyAN8U8HOp6xwyGei92cMn4uf41j6ENJnDeFDr1Ph5s6/oNvdyPLbTkYaXzFFvY/FRV++LNFF2+nyeGl3mqTt9DWKO3i1YSjgFOtvyGutCtOnb8BQteu/sJniuAIz4e5xaOF76PL+XxTytegFo71/T+FtPyf7I/WBVLGRFNmoo5H+0gYTbBZvE0U3kmS9DyfSt3vJ7PnPwiFDL/1diM8AxUovNZzVMhzq6R+DjV/fI7LgBMaPsnK2T5oqgjXe0/PspTqqd/I7wb4SW9P528Aq5yW93Ppu3ebTMx+fNzTEWGt/72Os9/xiuU1hTTFyYsYjOlcNZyaS5sh1rUaeAYmmD7qzrMqzhFdSqo+OvK6Dg19/fqao7pmJ5/KB2RG77jJTt5KlNQYocOFPsEywSCQXTxq8wEs7u9b1qyekoQxftSanPR0ZLYOp2Dfzhcxuwc1vhpqn9Kz9VDUlMfxJsvATsuz6nqL2/9w2Ydg4fPxmh13ti5iCg/RisB1YXiKSp7N+p5Me5Fyl3l79/gfmG87cn+SMYhfeLtuBWi+d4qZc/njokgg7xSzJmiquQ5DHYuGl9CExVE0Q3Y758jDs0UUuE60AuUZU2KQTl7KgR0EK7dwJ2E31pNttvuXGCTS8tdAU9hM4TDybKN+J17S3YyjRcX6hoJBksy3x8Ij5JCj8hlc8opcEjGSSGqasW+2JG/JDqatPiPp5Yaqz77A6dmkJnnh2qDcdz7Zn21f0F9rafjYDKaZcwWR3amTnv8RL45UhlQwUdZz0c/0XYuMxK0rDhlqNDB82yDiH/StyIsjzv0myvjhrXqBnLqhqSFfrE+BlH27Gc2vL+VSZ6ySXCQ1Bfem9vYAqi0OieW/wCFTl4c3hzIoOphTl9KLJ0zTX7HYBWoiEM300YqxWuxeMnzWLDZUCzr87N2oy8H23VqT9RsdJodY5XuPODBj7OebRGMvjciv9H3slTi4KB053gxRMaZTYYQ31fS9LvB8m9PDB3LzbKkpYNIRIZz5aN/DVtu+mQa+1YE1gjoY6Qvbd8zW0TgzWINHZit6+TGPk+TMaObVneq7cjTl97LhGIcTKeQqoUriJwjmMSQAIGyvfLozw9XEymX4VRvlNDCmRv9dYZfy6O4Q7/a9zC4+euxZ6RVqsdGjU70PDYfF2Ph4Tb0dhZkWrgNMASNuVxeEXnw4Ihoh0NriqMvHzLtPcRg4Nzknq3y2thZS7F+md1rHEvuLpcolCu9J/8d6fjQLI9yTR1B6Pq+HLzoTpVNvAVm72UVf6KZ+5PtSzGhqtWqbrNO5OnnV9qfvfrAVFt2h49SLluZKGl4ldat30mz/Imr/HLrZqCA9dfjfiTC9pGVlNqjwIGMcBFFsfXJL8SbHXMHcnPxEuk1Y2qKX7wd3zatZcLb5Jr3sDvf+GA0Siu5GY0OOUNxg68pmUzamztr1unx8tmrpddMRARCd0/TndP4Zbat34V8OxN1IlgrJoFbWufZaryZL13fpfjn/r8KAUTinUwtpgw6Rx1M7vlFcfWB+63cy9xt4FJwI4a5I10wVER0frTX4y+69r1N6y5wbqc4SXSZGC/KDZ+qGSdNA8OTdTTjodN6e7woJMe2Y85r+5PcLvxNHVsWqe7FHkQ6/vVfTU9gzic0MTBInzpo/IPMLIUdrFGz7FQSthUIhlV9aE1eb7fwXJsbR31wqXWkb6XanXMZq3n2fMCrXVdAlDYEikmCzn2H0VZtsn+0dUA/7JJpTRXe6WNrdP3djRzH9cbz/H9iH4Dw5z4OSeovwexOypXq72POJ51mmwhYX2bCKMiNcpXoGPLWZ+SR8dVRTT+x5zNSw1wi7Dm/GBXSuHTagxmb/T9Y1dJmjQqCAYaFglZdZW2qrsG6h2AXAk7Yt39SQNxuUOPyL191aB9TlVift8nPpmcxZuPAfdmU986+JyKrkiIGRkOaFN+iSs562dub1H5YpbSme2RHW8yRlqn9LRXtR8q+uIrRMH9KCm7NqrzLz4rK8fqSf1kD0RayOTGcquQ8cfZbp5QIQ9AwogCtwuO4d84BNXRHUSOjW6PumR9VyM+ZRi2Bv336SeJ2FvF1CXSsR0O31PnZVng1f6KQN4v9FXMnD2Z2I7BE0O1we7T9LbosnWC5M4hVqZyi8hSCRfVZpaWNdleS5J9UMh4AtGXc7WFB4goXIztUtl/Ypbu+DKzrjBorFb5abvadI63tqYskePDfzUehw8mr9G123ZL42Y16iR3/TzqbA0NJN/1xb1cLcW8W3bufV69ikW6s2uUG561t2mHSUOnsSiR5ngj6x8aotEd6QAzvyP31nmG+9ecXji7n1Rva0bEj2ZqPin3uZbC5Y1hzN38eNEkvXKqkNijez4HTWcOpjxRtvxZzk2y6uyzILl+m1f5IKcslY3ST90rKr8Odl3QRP3lrV7v5umrGtzriJxZ7t7CgjLakos1Z7JEyGNX6e+cqxz7rbfA+t0G/dUGVSUgMJk1McT7631O6bhGqnhGwpLFF0lPgjz7TMJLnbydVzxKJxSVC14gjLnWu2d/J0orEjXnt5a1eVcuyY59Whjb1r4b6M/tvNAg4mqnlxBf6tlOvb0LCWkRVPPBxXvku+kunFH2Lv67jTbNI9cQnl5Gu22aulX9FSM2+gX71tzVaKZzDCucfr5lbor9Z9de1E4Qssc407rauNfoSkPV3N0g+nCoJqOpehHJxQiNo/3ewcYj9/Ic0qyhklLf/lEAh/ZBZRRAzQTj1qYO4/2XMnhT09UgoZhqubEF2VqCQ/L711rTTizFo6KLub7IThBfYv74bjV1CzaT54NeqUfuYtd1GObjX0KFH+s18N5FDX7glY3fcxkrtAx/43Cg8e39nRXk5M4VdWbyDTwPbRWi+S5ymN6hvIJYAcF0libfnTHQH8zyEKsSYe1qaONoV086m+tPlQSXQ9FEDxFkUjFHnuBITG341B7yRSHayn/9YLPt20Hvrkc7cuvyX03rxuLh/OBWKozqTdA0UkTibnhvab1WMM98DlX5eqqnPTpm4ZBfqGV9B4Mf4YpLsFXKlqGKztCVuH1RHOVI6YhEvxsJnLrzU/ZbWys4IOltpsmHjsOpGuBrWnqox7bKnzGl/sITJ7i9YJR0NNCgY7EKcKFWpcJMF32cJcnHCbhdWqoQgFQl/YknFQfjtdacq5HqVI8OK2z2FNembZUsPDIf9MpwpQsyjlaCnYGdS8p9aW6bJV5KyoBdVqV9/CsnUyS15idI0mv1UFws5qkK6XkNwpwYXjvyhRiNV2ogc/yVkBs5o7FLw+GDMVRJh6eiFvY9IodfJCkqXsXRDsU3QwYsAeuYg84W2BYX4DdSAXm8uY0y6it8W06qAe2EDSNeVWhQRAe88wooLUy7HCpolJeIVTQSSIoWpS7+RnL1oh+1ErpYpsNqFYyCrTLKlNUosiNp+4vOEsQilzqk3Qr27555PWjFu0IkTS75LeJjEd0AGGAAskbHxe5VSt41EEUUJHp8EcjGM6xa1XvqMe8F9vLzSZAGnc70FCHpQcxEFOLjRo5Jw0TXAI1x5W+3dH31twxi9D2yBvU10oKn+XNEI9LxziUdhpnHKyTTKzpxivGkGN7meMMIeyVV7QCns5wtN0e8Nwp24t1oJG3GAWoWqbyFKnK3hDdS6p20nOa3iJVjGcBGdADWOy1maLG5KXbWHfmoJH/BKflq3zVJy6wCr4ZRRMmtHnBoMvKT0rXPymbrFMvxgJ4s6vlyl1gADUFU2PGK7weZCsZx1DGJ6kJQ0G3eOpm82kP5LTQ8lzemNpQhyAWLMuvBlVm2/9hpSnDnL7igr8aBviqQwLvXsVaNy7Uc6Nvow9TiahXKhiUE62bKXW8inCQXQWe5pzbVkjz8PiEUlZK3LzT1DLEzG/zWEHZRoItMOb1Bo2GJUp9/uKcgKyjJNvItqYbR9294gvlKnIHEH3mUKFXX5GIvrb+4kw/PEBDnJq5IbJ09Z1xjlPS41PTJDRs8Z4L3FwSE961Jd2kLIzQ8O7CbjoKntPBpACN7mCg5sPy1mYgiWP99bWzG1tQV5h2EqcL5JSXqlrZr0JNL0ikWBuqnBcaFgDqzz1W1tNWJPnS8bV1K4l+EfYtekBw0xrGNcs4yhDXOd3GfCsWKmT1pmYUQz613JOfU70KudIg8IfI6rJosQ6uVvJdAnbtpM4bFYM12dqp9QA0hg9Yh3h9KrRofGPam89iwnl7UPXl+mOEFnskCFd2BQOmZcmWM3qnAUtVqWdlKHZq2hFVbrWwMf+ifsSUFSJ3yCtohExSy+WLNDvwEyzsJErRIu2qtp6j3p8OjvET4hk49twbw1XluBciqzjz3I4q5G3o+1Qz58PbGrJRfnIpvXAAcpYSoGt3CjwMCiW9GAlpzjVo5QTqqMmkg3hb+Xpeo5c3kuobpubkZD+agALvkQe7SeWbbpJ5T8pNbzgdkbSTjKrD1gNdJdByyieIIHiDHWDL1nJXVCqPAs6B3fkUXeua9gOQlwrqDz1i4rGnxIcQMjXOlB3fqIxiEuc8Ii24NrCUEN+lfL/BVm7eHhgQ7gKnt78919gPL9lHRvyYTzuWG01cW2YxhGDwSX8OWZQR0xzJib+gVmi9SSV7uWLRTt4y7ZrV6XX0eUc7/JJVsT1PNTzMqOJNbcvveVpsd27jAYJRTqSno1FM7fRLe+kj265PyRygNev9g1ckdQSru2Iwyv5zEcTzcUdLCJoMnhpC7eG33+t+zXm37+mtNUt7BtWDoBk4bhWDNG88vJzBDfYJ8GGGXugBAh2DuOOEjb4fYox+BGWMV2KD8p5JYdvtxHegbyOf8fbmst6RmBtfgZla+DZVzscEh5aYcpnFapsUHWkRyh2U/EtcluZ9g41sb/yqLwlrjnKu021pllIw591NirWqQInJaC0v0mYOidY8gVc/NWvajCTwG9xZ4SAF4KBBPUL9dJ755eC5ODRSyqsYWGf/XdvD3dLc6RLpzo23OHkZ2H3LYjz/lQFEzf5RwxsAPIJGxihSh3fjjA5j5VcVknW+AvjS78V7EJq59+3mW1+ftY/CS9EwWyWWdJ/eT5ukjHXbLewTfBhfjaQ7/DCiSk8NfyEB3gVKL0OSN1M5ETmj/uktUsdQX1tuvR03mY/BeA4Knh/HPLB1jAABlemQP381dCCEfzLKzW4mKrjb7TuIg4cK7D9meZ/HPto+cbGr3Mm/3AnY5XEFcpXDWCq/rg3dC8PNhaGXahaL1P9wmMrDAQyAV3/h1R4kmB2XHu3dquoatrWm84xRSLWJk4KkqEBEhPffng1LHAhkvwhOvmb2RLmxIxYLAAXdjfCP/yDxI3lKfhpfIuuzc+/r53rO039bSH9tYigwkID86VLjUrhvgVU/R+dQ7UaxYN0MSGfrPJ7J20J0gV4goH9XtyZRBAhf+L0FdhlNPbtzDCJkM/ia5+ob+h4+QekuWQ8XbRyvCLwfVh+xgC1YgEtYGkECbsou8shtd278gYA6Zrb5/GmvgwLBXdQHsbbcSVG4lT7ODPZTxDsRoiSpOgfh+LlkBD760Gu6CiZ4Yxsv1lwFJY/3H4YcQCBVvZ5hvt/JaMhAeOJc3XePvQ5FJ5xcAZi6bR1CJiiHBZVcsxlKNEbsLkgKsEySA9M9PqyufN69pxu23+LzfEnuzbYHgJ101VtnzsXVzH/BR5wqQaH41Hn4qlAA3wKia5GHtho93CjEwESQhRY+gv+/eDMVjr9nXqWqWn+8KKroe/4hwr2zVFYuajEyAAaQAKiM6p2bCp+PTn9atCX+qvCalct92kVKof/6y16vE4Rzio7xOaa7K0+zgMKwHa/CYY/DB0x/sCWOZe+eeTBhKKEoGjhyWN2zvlpM3stdmeor3X5fLaapNU6ws31/urZgZsRAdGIwWGmfREF5qr4oDHQ44YoZPkiR6SAPKLpzXfYVr/D9jayF9qvDC22Q4vauNORIW3lqeyZWZn4sGAQhcls5idGQ3uyXxN5BoCcPHmMEMXY4KAORduPitSaBZ7xPHyRg9t05ZfK9jKBvk1SsMpLebVf23t73dC88YT+oQV66L9/SoHtA3vDWrF8CO3qifOX0PYk7CiqTsZWwG4GUSuJHZKbSw10gqPtSu/cvdcYDi9q0wtDTubTbVLx8yuVK7hVFbp+myXG3KGtudb89vKFAEHOh7QiW4Udq16I9GMoQAQgHB0AkfbLbO8GUxvN10fWq328PeZ3UrtqvUuLiwHmyVNUy4o5n9oh5B5Vvq0SwILJINBprHit/RVR0lpUNx0cZP57NVtawKGW7OZru8nNnvx4n7e/lsXOJAMYdXQhIAfepGZyALh/Bexsj444EEDHVzcK9MaWdExW0gsFsHsj51z+kYjX5/AnXzYf3BP8fz/DeM8WDvbRanocHZ/RU0W7SKNt78qnSN0KRmiBLhcoYvgoiFH7E56s5T0prsenO4oYCl1ibMAAADloPH01xLF3g04I+IT2gAleogDLril21ZqAAE7AAi2F4SVBzXiMJIo3CgLAAYlF8BK5gyKIHZAcJR0gjyJAaOEhOLNdeH77U53g3PEIZwCfYzf3l/Zdu9eMeLRaRUVEonnWtoXStrw1Fg5SIHHI7FbTDEZKoGXtOp81Jb6iCh7Ksgb5wZo4+Pl+s8ZfgWC9Zg4Wk5+o39ubQJ/1fN9k6nqK++Fh6nCfGau7vKDk006b7uCTegzhsqVGe54k38oH/hzSX3qgYCzKWzp/tqdx5+wFriUqYtNR2kbnVcnd8V4zYfebDZNxrdpRUYIpfYEihPKQLqk4TBSf3D26M0KF1MTON8Uw0i1FePzxvwj0NbNUJutrJ5BsAtna8HO3fVooNL46Oznd3VseO+jPguczMlcT69qLxnhrLAT6lmgtnZTCoIndGGsHm/TlAdPfJoB9VDHscHXg9aEla6K164Ub+MOcvcNWMZ1XuGWlYscK1h3qyyJzXvF33iQQAuBAAQPZ1aI0Kf7L4N1blVV/FDQRO2jLljKmKrKXs1FMpprLf9XyZzmPeqdAIpHld/5ABbkAE4yJwEEkHYV+zaj2vJeaGYIRaFwnns5IzDUirDb/nM/9QXYjNhSfe15rT+wGwWzxwGA4SwwvAAP9Gbs7aRAmqMKjBIc+dSlF7v6pCtotqV+opGN8TpXCn8wp6XCksvb31uiuSsuvS8Fq6tsPKf1XPLnvpVVi9rBl3WtvMX6/i5g+DT9/ENO6triEq8Qtaj8IYCWtXQ93EzhJ4eGIcIwQagj2Xkza1nUhh+idsim4YFBryhn31/aM2mG2/7ho3dbDbm8vY0mc01tWWvfb9TjnCJakEBXhzUuO93seaKIaPgngZhkvND2Fw9JdIFfSK+a276iW9s7WQ14+8qUgA3ukR30rtqKS17yuodF+iHyJPmi42p1iU/A6JIk0oRMcJKF1dsy3wABAcUPfe6wtxq8cAK6o3XpdHR8mwJ+dWgbeFL6nSPn9m/Kw/hTJ87iGDo6IlKBtCkdNGHXjysEVH4KtqUsMhIFW/yKGKiQRA1aamoRlEJKeCZT/2Y+uiyMJ2HHNbHtQOF0UPtWTRpSwEnbdy9Rsw8O4Qf37aTw9IArUzBxy3W0R49Qgx+vjldQAXIbIFJ5lEURTN1IkuZhlUGK7mdNXTOYYltjtrgbLgnbU/8i8V0ndhVijgHCgJYL07QXoKeg7iOvyDkZ6kqO5JoOGV37zX8VPzLKE1rspAujeyjYh0mTG2KlzJHjm8ZBXXI2izTacYJOOQgsQYILL7oseoacHF8cRsRHqg8B5kiIvhLO+lqDEbqx5pJJ6GBDMIHvcwjnQEv3vI/VZJ3Uk7NwJ4t4Sk9xJu9kyv9Ex2KJ8x3T3st6964eAG8DgBvqVrxwkDdcldfl+zPvSu5paVQuCnRyMgSI2tNwYzS7yDMSlsXElTAiEMBvI7riJ4bW1Mp2TWHuJ/v5CUiLXsl1fk+5N8R9SxWTymx802ws23/7CaOBtegdE434kvEAT8D6mWABU0F5f4kxQxSBJQpVVDDB2QvNywrmQUGUY10MxgdlfM+eFz93iE3mvuvyJsVdK0HA9cddnWME8rA1c8SouSotI/KKGVfHZkTgbWgHfy+08iOr95MFavJYTUsxQ4nhYzhQVZlbK50Wq2dmrHt3uFFH0z0sQMbWAzhGwzi+utEZUBSQGRMMmEkDq9mnZjVCvsfLohIurAM5NQam6P8278+v9GQ10kKEQi4KSD9gjaMWAIC7SNUEEWGBusRBartIlKG11RN11ul1LK0MzCpPR21iuUrPdKcpZ6uLCYSz29TjV/tmNo76/8CEvlkjhrUJEic19htYjgPSWPMzaErhqW0gRA5xsC3psx7LGQivvWxpjMbS9vV7niKpdfinCkDwMDGWnmIbQmTLR50Hi6hTULIIOxvTwN3kQ9TpU/e5wSy5bed1k/3vFbTjPq7cyXU03VX4GR6Hss9o2CW6cHxoxGBO9EE0cMjWDS0u+JWMXuP1J5RTZdI0JV9VUqTuKPf5ZN8iXZjMYVZq2NTFuqB73mU0amAb3L1MSJnI1vJFbBTgIZ2RGEaAHA9fSYpICBYMURzomBAnMOZXySb21Ssf/51DjdA72I6n+OxMyTLxQwHAFIChYzPOEPs/rFuTo2eIqD0pUAYkFyhYHYWS344beNSzC63Jdt78rye6tV7YLXePHd5JooPfa3eYZggZJ9I/tfNvmp7oMkBUpzamwAAF6hSIAIwAIgAIYALE6KVyvyABZGi72fnKm19pbF2D63LMbgAF6MiMYxjGMYxjGMYxjGMYxs1AATF2LSO98En9VqtNOGOR8Vv4maebyz/4BPnDdxtuh49/B3CtqemNePosxhGdTKKCWFl1hs0tAWiQSpzGWhP25BX4tkNOHDVwfl4V0UvvfTXuLsWfqqu98PId52y7nH76DnLXBwmQs5vuqF/53VIO3s8yNyYjBtGhEG7mRRK4FSzxD0aWd7UjV1H7+00pje6pcxKybkd1Ml0R1Z6XCC2/W1KVSVy7WGzknjl3hzy6Ve2MG5X2K46vvkJwBfR7t+cNPVtKkl7Hmx82RIfd0F4irKihZhS7/TQEvJfLGFHE7JhUzZfyTRzMEz868n0Yb6FmYKQUMV/nVbQXxcLdeYQ3oFwA9Wk4Y3T/UnHOstj8H+URurjPaPFcc4Y3V9i5VW4yB7PaYrkbqi2V5koP7N2I5LraYLRMsBeWdqnXI8C1SlmCAhmqb9l5U08mBBjur+tbDh8x/m+XvzGokhXfEIb+q8ePnnNTXak+L+uITyebb+c7N/pGgvInI4Ak+T6zauAnlGAww4AXUkJ3TnGZWs4Wj3bchO4k3Pke4NFkyXVkcfz+5uJPyt3FCjmZXl9tNs3fCLgEfHd2qcU6RkcIr6KvU2happ9UaKftUmj/yvkwHoik826rzmgMQk937CSHuyX8XL0qrbM47+anOVcsu37nYtdyxeubDpmGBgvLEpTBcq642s/zQmVKgnjAq0mcT7UXZi7UibL/rF2yh+H2sG+nn4NRcvv73JrfiVPUZhKIgAuVtzutI1qxLCuDbugA1Ty5w6dJ/MRQvR4VnmrdXCXGFpJiivm28+r3v7jtpJ/01gPrLKndaKzZOmMJJJCxwYSs5USbwjw6RbWmB73Sy/7zzXXvfl/q+rv66Bys1yKhuuWgcm93eZQlvTRDmRbzWAAF5HV0MpS29Qdvm9uUonPdGv7qmIDwdYSszUjjo3W2cFuLs+SK7z2FcwwKQXIRTGYI/um30+65VWBHb+osyo7tPlMlykQet1yP9lU6FI/bpKi7e+Y1WhJQqetuvv0+NI5eL8MWIIA8Umag+f4H5TQK1H+joP9hp1aS6mcGPLKxszF+G13kvj0c5UiaiKtIS2EvmdNnuF59/b5OZG0HlFNJHXRE7+BM4u8JT9Sxq7t9xvBMANXLwS/l2NohHfqAWzh9uyp3XsRLJLxD9G4Tj3HASHfv9NsoDCYHueViIAwHG790ABd6CuyyvIcAFqEPEIsAA1NEADYLF1Pdkazk/Lf8qEA6hy3Nu8qsIJ7D9/Xa4LiXb2nqfUPQ1RfHzyRAFI2wsngEjUqbLNoMrtE5RhW/Ge5A1iVxCVg2hnjiyVn8nj+je8dUoM8q+MB8NHslUxOG5nCuGKspK9DEYwCWIocnpIeBZnVj5eoIHki2+/K1B3Dp/SCMqSHm9b3NT5dPMpOPi2PXuzZbZfE0mrf/q4sa6DlyyByNrsWSrsMfsHvSbopWpbA72ngIJT3epciAxh5w772DR8mTnMJzQNgIkAABAkIL1qa+1P7Z/WNyNfR25+IRep8ZHdap5nev2IdrvuiRFqwL470E8IAFiN5EAAkPpAEmACn1Om4UnKku7m4dGbcI6EI+QNW9YryKooUzZ7Ouy/9dUOD0V+L6B/1sK+WbkYbFDC+Z6C1euHOIsMEmjB0sINOB9igGzaXnhgXdr5V1NZDRU5xNMeft5dKLlyUtfmMsqH26x26AAzGOS8j4IQlmqSAIDx6RolLO47GOHReQImx0teGY9BBJhNzxYr6clD0WMRyKH7273ru5ecovb4Txe3RCr5ty5au7ee8pMFQMIyWZBHiYUFHSMNgEwsNx07IvmmtjjrFJ59uvbTr2jxMKOKY7T/8yv7rt658aan6eRWNjk6cGdbzntKAfzjZJmw52s0AgCd69KlhAEIYXoAFmt+IBB123JOJgAVbh5dwScu/fnO5jOeOSJuNgx1udskxyVetn+/CrtpI+aD11ielLfhc4z6KLvv/07Rb+1RQPq8Y2WE8UAmDIAoAgpAPtm0400iwQyRFr7w0YWvmeeZhCAIDj/Iz/u90vA4FcA2win63MZxPemyMqYiCm3h1EXwFj+lXngDf9UcG9YAB/6TcJRIh85byt5oMcLhjO2NWZNQE+Q4e/nYhBqG9Q12xnyv17b73rel1D4zbdG/ZuUqZib7TmHR45PEywTV7aocvJpoylvQTn/CASm8HBWGI6kLynhuSaHl9WM1zY3Dk2Q7rzeBw+viu9zNLn/NgH7RffZw3FgPvhU3Dovn4thpUAEyABP9z8ZiXRYkvAUi2gAsrFVkOACg3rQCASP3ABXlYxxpIXW4D+XM95d7OPzcQ+yu1NVWL2+XC8P3fbP5SM+lvpI1epzDeuw6t3DDOs4UYMJvGJdrgkwdAfa7CEzw75uEDtjzZLm1LO9cu0x2VUdWR8UBu/ZeEW+87oimnu9TfFtH+KaM1PQcun+HgrBzGOiLoBsAAwEg5qIw5BrmNZO+8kEbplcPX2CL6cdlyqWeLG03z2EzP7LQs9131c9+1biIxvY4BMsDoKloN+fhKmy5jE4Ag78LaN/Ahe1Gv83+PXrvURmQ+xT+tF15PeYawlZbhdjNXSLX59hate3BPoW4QAKQ/sBa3FbAAEzjlu2wM3h51xcMHov2MqBZDk9ehdPjtPx0wrM7tg7KFxX0q9Sdm7eVv8qXGH078d+wz/CKgWKoEklzHDBWQAN8pkzjl75fP1YTJU23xyTMohBmQAWf/Ll8vs4lQAwihswVPvkV4N5udzpa2urYt9X9qeonCnLuyuKTjfuAMQ58wAGwtA2gbM677S8/19Fcru/PN1H6rdDqUikE7CT+UggwISWbMLJkyl5MrNlIl4nshRFffo4r9R8hN7t81R+/cWiZKyJAsANxRgZ0jYX5gXXzB3Uko+7SvlXMikJCAiAgzS1UZEFLOxbYzHmbILG/Byp9Ll9nrDaJD2LDRZpUTBXsCBPgABCfAFmFAFpKDOaOfABXcQCJlrUACsWpX6VIAF5J2FhEwbC9tT7Q5DZkraP9RO3ITmW0Qmf3+BU+fLu35PA3PI2ZqiHm188DkiH7RS91Q6ALthTdUzBQkICjREIxiQFip9ykhCdvWHludKM6JCw8GatLZmijNAZg/+92dkoHn5n5vOeR7TgGTdxg13rfk+8k7xAsgmYRV9915ubCwK5pFvKqF0KPw5atAA25f5GEAsYem0hIeRikvXmnf2N2UWd6srd87Dmvc3ZPNiyjgNLJxNFj0QZ7TPXGC6gcv0E9lxdjsOc0dklYH3rz8ewKNtX0mFbcyxmhqS98cu9dO9cVRUuDfcWK6+6cTANhBtrnKniQ+wzzWexKo8Uh23Q3C66dZg6ArdvF5W+96iTnJGk9P76ZGQpcKbtPuq+lNVuL5MusZS5fNJJOxJ+CamOqqd+8cRYcYHtR+UO5t8q/BH+xX0ZWot2stiNMivuJUZUMXyPHdwAbC8s75YAGyVtc1lgAJJPh9oAEYAE7VkEsgtoNufm64kqR3W33ltxow5CrwT6W2olbalkiXvmf7u6W2dJx6TPFtuR1ELv4m1cvS5Tja14YjtZCKiTuZI63UAEXNr4aNm0PFiaSo6ZaYEhRKBZH/KbJo8vb6Hz75lj+SM6cOfbZsBK/dFBdQ/ADgV4J0Ud7BJi6e3y+e1u4TQft6PHsD8SgmhtB3jogzpQkUP/nSyGqF7V+llco0vvF28M19isHL8FaQYp0i2b8i8aD27QF1hXsn6VKtPd8JnCh1gbVSkqgo/7kn1fR7z1Kp1r0qibn4JQhgEicH7woAKMABGAYAKUABEalA3OxIAIogA/Od8Zr1nR5JeqZpjSEDqqDWEEUA8OrQV8Y1mbe50zyv1+JmS3FznOXpXxb5RtOTI25+Z/4J2ijAuQOY0h9nWBh+2MnLQrHyDad+kl+uqsWpjJDkuNM4VU5d9ByW6zucsTqMD/5Uv8WbUCAXU1QAL4KZ4QCRwUgAVxAQjCALTdlBCEAfQAEkACjfBdaRsDAVz62bzF7b3FNsaLEaDRBtYMOZ8eT8Xdxb5ZN5Ve1VIKHP4q+xJNSiEE3YIAsgDf40hsvksl1nDKVOHhrS2l/Udf5/Nt3UkQGBIaHQxyvctU0i64ny7FekVLoC6w3ifSCirwUdpOZo5J3qlFt18ZZWSxYAK2RmqeUooAE+SoAIrgEc2QDGedeLLfT4SfCWK86rxS8h/QLQlu8I4CYTNa0Qgtc4fe1xtyH8iMrkbNU/52LAvrlBozbeo5nfhgLPnDuZukRG8Z1cnVqXntaMAFxu8ACwgAKNfAARgAVibR0gDF6OUMxgMUYGIYoDwjamACT9AAKeABLgARUAACY6IgALy2JhswARgsZSDuatRZdFXcMkoYCNFRBnMUoaohBvKuESSOMB9ZIg1DO5vQAzjm1TmkYYbQi1Ig4y1I7lbuMinZ5hjr8Np4+nqsU5uVscnqY2SGx0H9lM+/sTjAaBjiYQxnhUYdlMkN7fVib2NUgYDSGMpSpKAQxyJQKEjDAaaCWBdtFRpk7+wSwZrEPjjsY72NZD30sstUKoNQamQIwjFpUxpjTGm4JlbLCVwpGwthnYPd9aszvy/bNSt32uWoaCBBxbWgxtxbePg6Y8l8VGTsNNGnodnlodgqVa8xlBzNyx8h89VPfX25qk1vXnV0ndaW8xDmOncYrOMnwb09dIt2AQCYDAQq/qPx7dyQASpN+QIBKAAm0+NQn8F2Uwun1ZqlU/rE+e6LadKwuBt/fT3315+C3U9Fa3KT1bklmXS39NkBldOuWwP2bTKK9oXu1lMA7v/kNaargnHpN4/FT2OU2mWNlvdvPVPK1JimCguvT2TjTptdzZ9sIQm5mDoPLDwEEyABYIQCkQARrI/L2oAKfFKhbJQ0AGxH8GCtNijoPiPKj4cg3avLwam10tv/vxvzD5rWjKfreeG+SlvclirhKFOh0h/RGEgxyIS7Awobq6LYDz+Lb7YydMx4UhJM9C8Co0//SBgx/VldPAABCWNurNq2bxFp43Zts3aXJqpJ6MAFiQAWl/wAEMAEgBCdMb5gAVyABPoALlyNRrUskbM5Y1zxxP/c8mrqCdL7UYAJleQAV1heRhpT1W9DPXROl2mXxq8KyCerOSRjUFpqMG2/3baxvQVqxD7fEdbiZoCrZlNWpLd2uSFBTLSSIlfGVHEgxSMwDqp9B/DetAtNW4WDXno5EAES7xSkrn/g/bmzzkDTtn/2xcNU2LrcIQszS7vC/fvtJNzzMgx9z9hQAT1gL1+L9zAAS5e7PVRDK/Gu6T9ybRylsQ0Yg2jvhiA0x7C2G25y7rj0n+rcTTVTM2naY/2k8C8aelg+WYJfNmjpU0A0iMx3324YowB3AEhkQUXzgguCtuZlK6ALixWAQxjEMQxguhmCex5x08V1dr1fXuv1M67hou3jfbAqeOe6dJus7kLPjjMCOCRZGmnuj7w2gAKgYK9euLXrX5M5bS/Fff/by1TMJCSs2mqbQbPUgEEYcjsI1eP6rLk4vbyzLCX3N7+Cgu9qej0zsCqdJxVd1trGsZlnHuJgVUS3104WqYVhCr2sMNbw7npon0ZXX4uU3X032s+Oe2bfsnG8ODhILWqbSqapA6wXwImbDMl5ewA2CiPeY9f0ccjCAtDv7FkgLdtXcfnv3dAM+V+lkENgVZuWm6xDrGTJlB8/1/N1x8owAvDWrPw0gAQz/7YMMVfGJ+J+RdoXeDRoPq55QNO8hs34l722t+4fUy87fYbI7fJ00peLrFuTN0gxvAyh6fE/Hwb8kwGmW34N5t6CWLCEV9pBjEuqQWGPWLUhpmEkXrkbJUq2ypbkvFy7gwYumOUBTmTQfeZCKIQuHlhzMt/0FCjk8LvJYpomTy8juDdRfbeNxCf7uFE96KIpanTY6fuXauKxQNPLF9v7CFCWGg6AvqPYANnOLf8FNqXc+tbupzfxJ6NINM2XNQDNJR7zsHqMZYhxaq7ep92u7ZVTdV6yA7LitRvyyKD0WBbdSkj4ETTH4v5QaHvSTFecnbVFBPYXAvcTn9OyzDC7RmYoF8R128OmwPaGuXNRD59L+LQacABPnw/c19yxG1hH0Lftolz/DCwqc4uI2JDIgGMKtwmt5RbpjLj4N2j4EXrFcok8NdfvfKu63c/X9jK1N/JrZK+3FaJkkQLniJIRJDhoO2RPFK6V52sGBiLIpCeCWy/4juEkpJnpdGgvtH2Ot0m6e4naqM+3VwVuTCynXyLExaa7PjNhpjT/Ve74fZJKAXjhCBt0Al4ePM5ar138xNRdYHSeFHk0yzdT4vsmUBf5GrHaQxyce/oiu2sm531pKAKRAaf4JAkcJOiqMHveO7AJqsapyuUkNNX91uN0WekmjqFUEK5mbH+F2yixP/aX5ajgRmJSTT1ZNeBgtRcUUwy3xe29w3kcnIuZzudl17554SU5Z3n7YfHAQOHp4m1jbn7pRUqBALGSAYFFBiJKVRzbmTzs+JcMW5OuAjWZE2nv23HhcikeMBOoLyX4ulEdLoe+16rxR9JgwVoRRg3ecJeFWwWcABsewAbFO/y9Cc90zxGm8WZp+VbcEyqpINlNk7W/tTjv8uE0Ur+L52NtQkNqKRjLKCcn76fSltFtOyTYKiUBWJh0gB3my7hEhlhbiEEdjzlI+LJQEDuOhrZJ28pZSe85JrE1CGnqMt5LKwWod6VnLZLB2TMurHty37wbvswJebwXsHYlco6caCzZ4iU49zePJuKvcQslk/CxPdnn+kzrrXI35/d2U/2CMqpBZpI4QpPrPr+kpi1XcLZ9S8x33xEh5222d795HFQ69KPKE1OiByecSXPeb24l4v0iqcL3DTqYeR0iOOoA82MiJBZGDXOTCy4I+H4S+iJsQnQNl2vJjsU65EfgSRxvPvcTwdn1Z8stSCnlmN7lV6fqfbJj1kxauS6dlZA4eFaqAAAAAhGCEH1IpB4l+OOS4iAbM8uWpDguA89yJglemLvth3AW919vFknVlVpp14XVV8jvRv8Q+yfvWgOCHibPhRcPmNJZLinxztlZMYRgT/EopcNXCT3gEWyCm8yrhZg2wVgvRdTzQ4FLoyiBiCwDTAQQHmKBCeyN+XdwhVf55dHS2aGpWuRXyx+GpdxtZ7YSqmFKTqr5ILO5OGWRU0HgFMAOhQizolkR1441cMR+wSkbqLjdmLscNvQSXT36nqrP+5eztHRm8kUifz5snN6CjQYowrJkF7xMHhQPnTQkAMmdeOC+2bZh/cDpz7N2gRyfqdzIr7q8rzjKDRS8KBLZ7vEWSH0PUOYH0sdkQsEt5cf9zMcyYnrpqmtZvycgbPHvjp9nqSaY0g7PuORrvzr1pkKCTGN2kIox26YLRmiNjgOt4Q6fut7PC05WC+X1F4IP7Pmy/5NnKKBgQt/RLWuTPNBtaBs1+Gd/ZBCnveMIMCCW+rk1tw3L/tLhsI9KV8ILKb5xhTbuejR+c2STZZO0o+eh6+19d20k/PZTuLIK9KsxiMOCyY4jq7JPfalbBfGI43w4n3jlWLaOML7v3WmttrMTtX7YMMFogwgAkbHeVTNIqrgNhKkiqIPiLQ6zh8Ji+mObTJm6i/wi4PRbsP1KJZt6AnN8s5QGvhdJtDb7h8oJSTiJ/0UrtMT/DcMIl0IAcogARsghCYQMZvz0PumkbF/1KtcwSoOlWX2ONw/cdJa5Wix7FvhYjEXuHrijsGs0tw8qmZM+RYQ6mr2qR3/jDhWrBdoRzA0wQ7vHgqSdJdq3bteQJOFX1X50TV0N2fPvE2Q/Lis1d+d/dPLUxL6fMfCW8Ed1l1I/8nfBPmSsADhxv2clI63N4IgN4gI+6twyb6MF74nTXU9f9rgS+Px4ndltCielRrgrOJteAvP1OjUm9Y3a9C8rQ/SQYkwjYOnJJYCabCkKLuoGUk0+9vicGuBFbEJfzeMao8L4b9irqqKbGFOhyKvK4L13PIfMOjjLBim+u+7g7BnifSz/GuT2BPBSHK3WK9l50igr7yiA9Wx9wTl0rSy/PSItG7g42EoNvVJBD5KK/OtlRfTVjWizvJ8UjcN39XEF/Z5nwPW/n/gd8y7nM3UOZDWWGgJWGsgKYaUYxQhgCq+BLNM+QkKobnikBCZH9ggmvM4v3WNofLGsEfVnmzrJACvUv5K0/ep0Eh70dgls4xepJRoA3/b8WmM3X8kvkCRWRiQlhiGM2B4FotVsOpZ3orcVxOS8Rxy/GYT1TFGv4Hw6ohgvJtTrmMaih8TFERNEws8cCk1W9rzPQVqXsEtvBq6eDoWDCZk7n/BHMpiUFvDQZ+deyo1w00oY4/LQI6HbgLUnyFFWap89+KP5XAl99aWW4dHrswSfnfBY/DTR6VYJiNBfDMBgIUR1mE9woc/5W2HIgFShSmsxW+DGbJuF3RSt0WkpN+tcuVvT5NFgTx1oslyTfRGFOU0xxK5tpLCI434vOlu5dKpIqlfcVN1AQFpERtb+j2QGDlR2FIRfbWuypCwbL5wemLTJ+ZL2cUbaD3sM05lLqwM+vAcZeVnve609HcTrA/fKsreZA0anCjUTQhP/QANlNwHoxM3GZf37JETJITJIydwaW1KB7Cci8Gzz1t4ufLJSiQDcdBNEje9r72neP03pJPWwFqYfRUpseADy8fctvPWngKW1YlBR8oaaqWXdICMEMA0WB5DHpAiCZPVwQx+npix40mV7Pc/dmaYJXMXGu10uX/37qsKboo2CPLtadFjOvVj0pyNOQwg8a1TNTQ+51kFhRpZWdf7xi6Ll38rxsxVJQbIIARHkJwz6Zb7ZYZgKbBjj2u9NmQOSHBZ+UgUHdQu7i1NsRzDekZUYPVEIVbS8y6YDVZHK8yo1+r/L0Li3l0ujKBXBgwKOl8u7D5vVO/N0oANk6cccwiDrfPij95erjAJraExa4XptCaE3BW7h+MfOayej+xfemkyWNZPP9O0sYG5+huM+ued4Sbkda3qtC/EMkjsVJrVo0Qm1zZUEHm5Vl1IeUiauA5iR9XTHJt81wLH8GixOWaf2iWqq5P16/WiOMV89bf0oUUvvR7BwAb9pPiX9A+siHF1E/TUynGBgIO4PWvtv/3R24VSUuj9C+MR5Pz6TjOcVyNbpdLvzgTqK3Stt80RWsYyAbf+p4xqsQwu0Vwi7BJXCv9elwj4pPRcyWnctsFnVTV7Q/njW/OdRzKz43IhqfEQxouJP6zi7SB6phy7XWZyqp3dHSpXy/tQL6nBMXiJ130KyLwIpxNHPNx9bhMOdqNkn0zyeTYH1fUmtpC/+0fZT6eQ8fKvbWjfPDTN3qtFZIwJ2gay0lAuqXFGNpLP39KnhNFjigs7PgwQ85dpkQYLOyEV+RA7EktxTOR2gva8Co0+z6kv4OVf6G+p+d/iU15/qzCXuBfM/iqW88PjOoHVQHlpfQRyiHjtBd8mO8P1GY9Tra3LJonQhq4dcZo97Xcv8nOe7uO/c6NlaVrWk1Y5JCMjDWU9v+iSgcjSMFCgYhLcMfp9hRuJ0YAkgxKLCKqEwrwgZMxut/mqFH3bfD1sDSqawB0bCI66Uoef2/go+D89KU/gsi+04a9bJVXm534zZNA4Lnev7v2Gmvm4Qvs/b+VTvj4XNPFcHwmEa0fSDoYrbM1pH9cnzjFmhCANAzF/k2zi+n1rqOif0FPIC1YKkJH63pcrSLiNU+4OVWa3IA862jJCl0Z13NX9EppYLtPCnwEPCZdg02W4WMbg2/ymiNaJRmJOwKNiLPX9IFkRyfNlfD6dZkt9TK00ntejfuWvUG8lmMgvZ9e354j7wmanMI1fhgPcwhSk0MPCnsYDxxgJt6PPo62PWe2pzb59s829ie2Xl5nayzEqd8PJ593zP6YW7K3W8Cx+SrQtTcLoW51QbEbQz3AEAxGBQSh2bpF+TYXIwBqhEO6nSv5lRsFKSgSDwkvvgB9GykVnb2X9AP5U3Xm3XHc1on+5JK0vysIWbVOz2AFIg1rtJz7B2TlGFVNUMsJ/v/iHVQROK9NctRUWO4n0ezafgbG/uB0jxTO9e+09x9dZF+bOE82mq37JDlu7x3taeKxbU4DsUNd4GseYgaU7bFK0yaUsvBT9WfIx/4u2H1X+QcFpa85Bi8xvqqQ+Z17sVs/fIvo1DmhKtZgymgrCV4qNLFn66EijbZcCUQSp1viIgdcgjhHZICdoMKHl8ViOru8fsba4J5q2QlDeSMi79jV0xmCW93ji7Yt+tF9SERxMLK+ZHNIPF7xcwmAEkcSBxv3Akh4xciMvqxIrCt9PGI5jtld5g8dMOtwLTwDmvJP3PlX3FJ7ezP3W7Xsenwb2jFNMY7Ghg2inTeTK0BVaPrHO0frPjM03G9rcpH3hWkcmBSuOXxe12vwRYpWQwK2ddASN+XM02gzs2uw62d3GNynoUnyohOwAxR9BlukV5+khF/UcUBgWwgJ1Qcq8mMjNYsP14jx8W7cNsJSaJ4BxbSYmYud57X4L0FlpSbewetijUMPXvwhQ0HATwNtEVNwHktXhY1pwkMXYaxyzYBMp7/T+RtJj6YD8y4ZxVqC8Hi173IYxQm0ndxtfAcm/7XKxsO2nhbRRDeqwhINk4jvmFZ4y6HwTzhhwe00RIJgkc8ccjjuctkikTFhM0fYkPfyvJi+LITnOswepUV3SKcA7sQS5ULKrk3nilAuELDBCGGxGTDwByAlCDL739kcnmncb6ZOXTztyi8qphd7fd7QqImgkVL5+/yzVsycdoqBNS0XzM+QaPv4w1ohz4IgYdpxHpCggMP2hY2uK2hrITR7mUIIYKlFJWhsx71wqjsN0NkddXotTt2rRIkuBQlVmMSdtWLk4aOzdXC/vgGqYFmQMHPC1P3PKARtv65BZk557m4ie0aKq3y/GE8OnmzuhgjE65kR26XreOJuEH8PvlMF7PG6epgfw13sL244nMUE5FSwN5OVYwJJDuB7II3hY/1S38oFGO5g4BPJhAOyOvvWt6ljOF7sxpbSio3WffXrDeonxubD/Nje2WU+XosxgkXlLBmrbCLWwaDhzMXD9PtqMEz+TG1JVZcx6DSvbkstM2ur4OC+djhe53cLau5kt0xu45NrxYU30laCbfHpAxjB32qs5+oV/9PtrDTEIn1d/rkLrKQK+4ZaBtDKxXn/Luhtj89t0vtX9H8L2irWY0ZXCQqx3cDA4ssauMBISRHU3tW9FxHn1DQGkAgFrExrixLX1xCYaPElTA9sWWtDf5Bt7zrJ5nEnh2hrlZy4qPeaIZb+KfIix5eCGMjQETtj4Q+MAYi79q+R7gl92nzi1t59arJtF1N8Ryo2SXrSNghN/LnKL4Jssw2ZU0ZjKhY0TiJQxwFJupZzthOEU4jCuV90YLTGFM9HhfaWr1dNYDrzt1L7zwuWC3eRH77EleobowBobMYQyp6FPXg26IRERSxTC+UnG4T/dpWJfb1jTFAUtmky0u08bex1JlqeDCU8wkRYGxlTXt4UyiynOeC2Jh8M3ilwBMHFAmV9LutKjtY4B7j+fyf4QAkrt3bgajDoCXWChR1E12KXtU8B7UxHkyHH4jm2j1KeOgEuCjGEMV4Wazrp31gkSW2mdZAGzb2dc4n/ojlvnutRh+TOz/eQAos+I8v7Y9NiPywcXHk3scSrmnvccjNmv0THHGepU4MY/JtR2pBtlSCIiiUTU3WOFu8VqKyj0DslAJjFpYfOk2g5Sakboy99O6Q8Wwfy950mrZzF+cRWGKQZNBCDelvoYwYeIVmvl8qPRDAR01baGJVPZjnQypmc7ORfqmH2HDttisYa+93M/0V5OEaiYKwygls9Lk4XajUbIjp5qL2LHNJEhYEYbMP6v8l6z/xVopP5JNXDxHo6zzyOj55Z9mYFw0LFgvEHfEpStGUAdm/b40qDKawzeKFEQopl4ZbeJOPhGcd/w1AXu7i/c9iF4tG837bkz0z9PzTo+/JF3QEwCAJNfgSJlq446CQYR6IL8RQ2nwhh2+WvMWqu/71So9NC265xN6QplM7Ul1fUf6YAG+aS1dQhgdjykguFyJ2ZOqGA6ckXxBq6ncVqdZRqa8YWQaaMhWn6/3tcRBRSOZhvPr/7HaUXvotGiCxi2uqRMm+kvbmVyGPMvw6UdoK1UCve1kkevZkmuwfvCyPe8BPbrIhLQSuo4kbMFXPRAp5H+nBLIL288RrCtDZ47/AUOO3VQ/mhBWAiAOsdqMRFSVz9DfcmuB684t2n4Rg5H58KC+j+qV9GJcq9lyo6V/w3uH8nZqxch77PHDZG1do5se1W898VASaOy+0j0N6SlFYuzjY0H0p0c27aM7LrWWqPM9F98Mq1pSyJkjJvZlxGlsCPUQJJPI+icw8nQ26I/nHgQh/D/RkNpFPJpt/6ct3kdHtEtcm+/jDb8Sv/ETlTAmYjvCVN4nQa96RZBkk5orNjhJdG8dvRdtAdpO7nz+UehLS4aJ7yjYT9Tk/hpHTTB6rTUPUXLUG8TcP3uDJ9iWS6DO92VNqCtN/L+GuD6p0OjRC/uEP+ZOJ85hLkbe+z3Bg2uz5GE19DAO2Lwl2Ji+cmmI5zFyf2dfZJi/1Dvs1bL8bIJj4X3j0dIKTW9CQ6utHSefdbVZKz6Qa5JeWLI0Hljfv8jMKQZAbJfq+kwKI58bl3V4Q23lSQvbKP/lQ+QgIW81cZO/Dz9Pq0uKzC9Wr7XyGlBzNLHEYUIGF/cRiw567IZtLyLAd2oDUDAg+f8WeFY4Lr7ki2yPpz7agTvkwceU+jW8MPZ1UPK5lbM1PM89LfFm4zx0plEXHc3A3EVNro8AyoeOOEoeLW6+vyxLQpEpwsnBzXUKM5et42phyf3qBeHFVHZS5KnDBbiVr/fDvNWgomM3AujyJ+N/ChsZEhxfUjWAiUTQRzkkbn8VrJgCownytz2T8WnusH55KF0zuL3azS7CJtR9DRyFvXkq3XCRx6KX64kLw8sIdSho/HjxFzUEBVfWHfG75EAdQMzy9evtuMFXS13vNy8jj4q3CuLp1G/2V2PQiyjvVrZHXHJx6ExkOBQtBWpcrkud9tOusQ3Lv+OD0nFX63qSL+s8PZ1/7ipDBNwDZNWts+BSikgXgYuHlObjAjFEHzn25WpeKLsYPbZVWD6NtuKSf5ElPfVlFl2ZA44CJltQT3Fus0OrexlOLZibNpXiS6FfyfkaXYsw+hO3VJl/4pa0aB2M++h5vs5ONMPja2rioRZIX6IbgcSUCdDGgxzuEnAU6YNdeHRj6rgISlcmaOAOVFdQkzL7SD48Op7mWueijZ3lDbTQal5SI2Xfn82O7hWBwBU6MpGLJyswKMgFmxNaOUlCipZT9il3jPM6O2hJLjYKfz56ktST/PYvDk24/FNHwzmyDEdpGYKdyHIcryh96DoFJKv/iJBAYkQGA4b70h6H9GPEwPNynL/1VmN0mN+/i1Sr+Da/1DL8k34a2TDtMnFfzvDyunCAiN8WdS+ieCK/XyuL7H4HqB+2A9vrQG04LF3gIXZyiZoF7vdst3/rdQUL1jvDaX0HZq0NR2ybQkU8xqMRNaVJMYMVsS01SKxuTaj89IMCZHtv9v+i+GLds/a4wVrk6YrK8W1XazTOIKLmTKz3OBu5LXEsv2MDFMcn3pbcYJIAmkHJgQhtAR9WDrB0hqqBAhOwKMwucN8zcXPW+Tc9zTssbr3n3I+NWYFOdm7Xl+RMRSwGIEovaQbvUWWTmg6Ou6EAEd2XIOv3UitqWXHep5+tPzHAz/zzo8wxTqBBAuh8ZBjiQhLmxYpe2mlQEv8n/r3pK7GujEoCvVa/ND44NCjoBTQQRDpwpPDyZSZO0J12woso53lzpKp9YTbohl0IUumoulyRQQwsuA98RAykNjjQ7wZNmTXqTtzDG2qknjFpW20GZdEanBJxarqcGT7WiX5WUIGi0wAJd6DBSfDqVhDWwaWPbzNmUQzhomCvZ3XwQ0+PRWDqeWiiUo4MyHMWL/OYSBdo9ySabI4vTJVIJ58GaCH39GOAzN0SKUwJYpz9xWaXnWVdkMhZIFijK4VWRLPksUDqA2vj21O/VfjnqqKMsrP9X+jE+DKOJ9SN1kVrIMWyR8hmG7mfSFvwz+ZokUL8tT2XZ4iAWOW95q5YMEWrUrDQTCm4vP8/IqPBRY7L4LvTKvypZCUfb44Azi2OKM6FIBOGO/zTI5tCTMJ0B+vDmCgfHDzbs4J+glpLArsDmYHPUidDgvJu4/fYCi2uRr1ks7dzF3SAdBjyBDOQvak2eMEVs+pRl1mNn26ug+dfk0CYl7wT/elB7QoXJxkLeB6B6nr2l9a5iGk+pF4Kj8cf3+Fl5j8u7q1vhXkDaYchkkijljT8Mn7AIDS3rDy2YICuSYSS/Etw0B5vN1CCInPV39DM33mcHgyGiu8t61ysC9yGANmQu4wMTDDyQf3O1iIcvmfiL4Fg362jeYMJ3J+fzrapOm/H9QEd5sVC5Jajav18XOPnf/fBsTS1z+OQO6oRdm6Yk0Gg1mRdZb5qrPYGVWTucxrayuQmy2LIwdzU2cAXX5Te59kq5cAglx/+Wgcss5AGiXiCLcU5xCwf3qA7IB4KM4B0HxBa5vZTBcArrradepQYB4nK8rnkS4t+nRZGvoFKuIFEOcJkAoIXyi6ZWgZyunZmjn/hcgWwJAyD7uVaUgvHQeZHI6VR+vH8/5H7u1xEevVIfcCBqGt5VwLWPN/wPj24eLxLLbaBjKLFglWgjwj3jy3S0hpW5gsJtNmmk8y7PgcaHT8akCzzMWOFHY3wRRIuQQNj8ckX6lVtOAfUnbCJHQcKIx42vjz1EH0VXR7MfLW9f7FLnsJyIVdcz1TDSCisCQcDaO5J4441RSn6ahgrsw71d1sMIwu4A0rX/Tb5m5+X2+LrpmYuePd2UgQu7JpdT4YGxnfQ4hVQ795kHh9vdYCtV8BEMuv532D5WG1Tzd/8r1GcarfdLEvbMGz7fvmJtdReOiVDcCWUWUnPd/tqUCBQBpHg+UDIxjPflzzVDTXKaEKwdJr8D7By5OFgam6vpaVfsC9aFr2rdQ+Yf82NmzADq0D6sFIOzWnI5Db9WjWkrgcem2g3CVO/IMB1fdDw2aS9G1WJ+JqLPsgsSVvUScKqvUj5+rRt3TcHTl261qi/duMMtUcAy0xyEK68wv6iJfq3hRVVq/wWCwBN8eLobp+1/uiA63B8TFZL+Wqv3i6LVt/OrY02u8EW60aCPm+GRvb4IboUhmhynMgq3qZ1B7IjCzhNX62Fz7Cmnp/P2r3IIekv7edURiNfyfGMiWKhuKLhXUhv4DRoZ2zBcIXTyIonO5zudpefggnmZQ/JfvbUMvqezJOrXVTtBkf1L2q1ODs61Xzeb0VxRoQf+4Kv9Z92rYD5nJYY/nS1tH9CM2n6/ouW6+cb3hRo4cTFewUA+6Ae4JmOA9BgrZOsXhaFBIoltvFwDuiCsG08WO7TkYFOKhcKpKTaeXOvPl722uK6yQTAPgUIFesiqPB4P081ENRBgFs8TXIFYYwloqHaB3SERRuOFgyalmuHGnxlKulOonpzoos/bPH+zaunEZ8Xyy/+2EVNuZcRAgiRdt3BHSDV3VRyRs/ox5SCONvc/dtMQlJyYxqPONFPgfdBqH7tX1zr8Pk+VhaC/On+yfjW7QKwptW3O2YIMAxngi7GxwnvkdsiqHmh8yhDmliB5Ve4GXNmTtdfM9b/z596m5IsWjh9bhI5xB0+LhwHJoATUKdM7PNbd19vCQX+yb5jccWtWyaSiLSVtoUv5Hgap89uvmazlYN5jZ1732yG0uqSA166/vArpCHrZSYYGuZIwJUKDBCFmhY2ULnn+J2JlCEOQ90XtaVW8PySVTHtnr9/xQjCV1vTS52PzyZnpkDRJEhBKgAS704j66TwOfSHebpVDaJTRGj2zzeft4e8jqrOdNShYI05AhEF/r2bkLYjaUBIIG6VOLL1JFUPWnyfkgJveWqgla8qkGxjhD7TrlaWxgRZ0pO8t6mhqyf4y35QtHNjh3BX967Dycop9SVXxZELJ9eOs/1ZvY2OGJiDY0VMg4QJnqAYP8l6bQGjyfeTfeWwA+sT5+mZBsymrrP73b3uFU44YsqaBdhCHYLY4JnCEkyQzrnX+v/u5PDPgALhx1I5KivkUOCoKIpCIOh4NIYl8TgfXQSToZAGwWMxBbWdCsc93niw9B/1uRr007v83D0TlAVRa/ci8wfw/FPeKCXEz3aOjAGF9M7ru9S0x3BPjskoxhIg/JFi4ciUUlLlOShVJJZTgMyv357/K6I3Xzt6zG5Uz/h6t39+Y9HB9z2R57zKEYkdRkJKu9gekB9yET5KhaX3Kyg+n1LKGVetvJl3OOU461AC09BSzZ7+jkzOc+8q3P+t2xOhIFuZhKPUwgFpgEIEvDVP8hiU4VEGBms8KG7uBoOPXLdUqIYitn2IqEiLvxB+RkS8M7bd2kzo6bRnXa9Wb+929z0b7IB4C/X4SGP+wR4yA82wqUjq5DBW7+Q9t5ifu68alDXNHluOYa128fcaR/NVVm6u6PLv3Dj8X6lCryN+zcIIOCDrYUSEDZjr+Lklp5E3fMU2xJj+ZrNUFShawlUiKdiluFseMMc2VCEgDEBZGkeX0VfrEqFlR7/RjZeKmovu1UD9uhzej4ZgT1KDSE1lQIiRM1mcs4enwQ4geZVyYaJEEEA+5Z7ojE3ZQTQifk1V+psZ2b3DmqOBaIZ3xdjW5mTRjybhfAXB1JCBKdrWG3t09BT6yX8KcENP0Qj8SzK3F6yega8+dE5FpQMZHuc3Gyp1fspW7VSuJaeSCljWNmN7qdaM6cu1NY+OkE2SGobSfQxo8l7Q9uSmNdyLQoehltBAuiDV5cqU/8+uDOtiZQyEJP9aVtmPVxirFqLJHKVunIw+Q6GePASIgy0guT+iO+vSn7qTCtvv510ggpZ8byk1ClXKe7/xkj7pE7D5Y98cBo+Tq11R7phEq++R1mfdy1HFyRvq/wwdUm04EOa66JiXNC7/GDwx8hXvXy3wjjhStPbyKwiKSY4amq1eZU4qVXtYoXYqxNGCmwUUSZ19/lfsMP4LULz0saxRzn+6ejh+hwbdWVXeqpucTUbCS1J9Bfy6t/tF+vb1qUZ2cLXHlmWmKK7dsSdiBRttVAII8bBQxxenBRaALpErlnmjmExNAJ11KsPe1wy/FU+E0QgMoenzPTw5RrYnhXb8RjjMwxa0SDzmRYUfHjz29XajQ0iOk2/mtwVv4m6MA8dN/kSnvn1LKuzILkgm0qOhgMZSAfCQhZSkuf9eG3CUcGmp7moskLtibWfOp5D/VkrsvtEZcecqgqUqe3Q1q7R7N5z+0Ed6KStClBr4+GKAaFzpDm0/1JEp35eDLhalQFwMPqtFrAVyQosa+by8sfoLK5bJt16KwGZKvBo/EfQO9+PqjkS654/yKz0i9/8u0YUm7iAqii0cjKTMR9EiCQ+3DbkRlKTLN2VWdk96Z6dsxeGqP90YXJ4XpbbpAUQyANah9zbzDl16jJqRLN/RYIe6sInTFZZX+YlxyracjUZLhF3KWPNXbp+wrSParMTWRh5VNiV3+7KrdaNiV9Um+vOkttJA/6ZDTkj54aqY62NE5m822/MuOajTzi7XcHqmJkPJ8Xx4H8F+xtX1yqA8WIpEKxOFEdAXtYHt/dPMpMKnCGu+J2MFzwjaODyMY29cl5SHh8bwlHnzhsSH8R9P/MlKvoD7MpJRLLNlTJi03wvIWgNe63+48gM3DmK5KoEKXwQXZbKlZQ4fn7geCSI1LKr3mCXk7gtU32hHPT9EkgfyLhzfU0japTeFbVRojQmBRBWd+rhhHzB0vZNlV6/GN4zc7nj3ga38CKHWcHd2uh/Ztte0EyQu6iKpz9tR0UAk3vBWZUZ4x7g72nQrw6aYcRqvymupTMJm1rP3/LNT/tnlTY9UvgFFvguDTNhW7IVxnvV0V87UBRos4TTc0Ol0OcpYlzFeZvv/MKV4WfNXJCwmFDg1BOv73B15Cbh/0ZP8+Y8OjdyD4wW1Ddg7D7YAfVN3lZ39SCmov+jj95m7Agjsi1T/LE2nSFPkRC9jG/NMdHnQy2QA7blaDKjV1gQNrLREXeK5+LpqXaPWGu6yjn0/AqexW8Nxnp2UMOiR+Bp6qt5IGsf2As3SBViclWFA/2nW91jhPAiOorGRHvLUERPmuCh9LQF+5IR9L1U1PFo0bEXo3fV0HtPWMrGRM5AX4zCyLk8D9cfRvIPbIld3kUHLWqWO9+mfqaob7shfCCg7XUBjR4G+n6JmOw32/qxmV/cViFrmMohTL5iy8v1N8D93rn24os1dZ/OYD76CfjWnj6KCZ2ZQsQhlPpge27zqfKJzctH2rGVo+9v36ObuXa9WvYnFjgUOXaWRKzaGFalQxXRVgUaFFhKWhic9cJXUut35P7jlmbqL3xn885JT3Y7DO8de0C9xplkhCa2qzE8/0Q8jw8dz6tA1i1SigLZV2/x7fW1d7GsKr8bvEyLx6H/8e7pkaX+6rPjIaLC7zXKElhgFQscn/WEmdxsdkvSJ0PgXLvTJ84CIZNswn1ynqVomM089PWzzNSxqLJAHJ+JOnG6sfOR/ND240p01u6oXOi3v+b39lu/I9HGzDxf2rfgyquHSYKjHgCPeW9fWenfRwtKT+r7V+S8cBWuld+YGW4Gg55V7T1A9n9ZkFR7/NB1pb5/2yy8VkccHGUOK90koBz/B7zZW40G+Ge2e1ag3hSwwOSaBJjqLIvGpel+ZuH6VNBehx079bUcf3+lpb1Ga6ul6ZcMaexWMVjdWIRrGYjMPzO7YvrPk4a8ptF4wlppdRhNvZo4n+yIw6EnRLeHo07jTMsbw8OEiOunU6+phtpNOynMuRVqCy9S11NfttzPEuymhiK180xKRGN/9To2pJqvtuwnA/+fJFiZWdHTZKePcDQnfLSa2gQmaL7WdUQtIFY7T/vOobTP5eCjHJ/ZjBr66dF7kQjA7qv6JxX7gt0AX18uPlE095rrBxBk1cSBZO9MXWho3nS/EvvVKj0xQqA3lOp/++r9Q8mGoRoItPGDyGmsQZBvsq5QSAFQBbuWk1ji2XUr74d5OjeJabCeIMXVjvxwl26kLXn2GDE/L3ZiSRwO7m+Y+6dhWK14Mq+97+FEzjijVTrW3EDkz9/YiHv32qRdNn8XbdmfoGKu2lwqn1YYECaF9D7Wn6MdoOS9vCVqb17mJfcs2w8p2fz+6Dla5btV2XuIf6EsucQ1ooWMO7cyiTcUiPm5wC20tojIcEN/XX+TPxIlDtZtfV9jkUOGaH95IGVTzDXw0P7zs22paEQbeDW7arNbBCk6kovDow90+gtWny4NhUJ9Lpc5NZbzvenSsabDa07dlLdDU2Db3fvTqZvUtLoyL9tn8E1u6tl/iqzpq3xU7CHDWd2LVEhMHaMeQNFj92lsfYH4e/d6Dbaq42DTjXmREUG9d0iMe1JluxCFu7fSxL2J9ujECPlR1qspK0sH4gUWufZcwbJ1GtJlxtjDO1Uj0tFuf6/R4uTVJ08cpmh7kEzVKuxkf5/1RhO2KYEP5d3kv2nbajBxpgnt5Tnpq3NU07ZUIDb7EcJ5BMuzOVbpGITuwOzYSxQbiej34PTmeL/LVP8E1pvu19KSz15g3Xk+SiTl2IoDBU5tjEgCCqwVkR+vSDn/x7dykMllzG7lvCncd0zj+pVfanEr8E+yqSBYlKTnUYLFTAcV9dTwX3OeB7Zj0W6Lc3tG6rYyZTOCX5nL6KlU7KLIdmiOnWDhiE0CEaAB94vdxvEVrpVm+7P9bxvy/FlhyfSjt6hu+jLY98L92p7kKH+wzs3OY+KIH6uqkvFREKSiHz8AXdaqLem7vYFoRh8vxf2rYTnuzj6aG2JRP7AFTtXudHPGuAGBQ7sbTKGhvBO53M5729RyuLpRneaQGVjvDJmbjojbSskPfcoP8nR+DmosPneTSRst9M61o2SecyQthdPd2wneEcrOJkpqHRbadWq0bCqzl1mNTD5UQk9li07+c+TAGUHm5H6Z3osv1zTn/LcwvoUiOJKbSYmbRw+ev82+2wDRvzzsczyVx2UmDzT7kn85y4NHUukuDmoug69+FtUxY5+zZI701tSiPU3GTd+vXIfu+2fAcFTsoq25aG+oW/sRNRKE3rrKW4r3e55M0tA+PwnXam3ZtncZFLFr3JovytlzefSa6U2Pj4b8+wPX7mBoP1rimrxNg6+IuOr1oSvPeAVrkbRTQRfaeDqCJnuOm87kCxxDgZZKqWk7Koew5pkTO2LFJSfAypYK5eYxsClrxuu9vrTh8bdpEe1PzZGrlF8G2P86eMuz0SGKPYtAah88V+0EFlyNCXYo5CHdSbfmwinzKU4YujzuH5aNQAVLlaDipiMcr3+jWu5UewheRSFVnDDw1XUVdZOz0ZM2mOzkybSSdVuDLM7r7k/h+0NzFbUiWHvu6mRqmIgi0n118DFlm6SHn8wWSrcVUL3zkxxz3/Vy87NuHyNsj/yj8ellNUhyASFgkg9tSk8qXSYdhTVOFtrR+Rk1S88chztgSvYikXv1F8mB4iVh1Rt+wyo7DC82L3y5D8KCUQ6XaKnnPlVqi5pMNjFMhdg4g4gASp/F+abpjm4PWz/m9TLoK+dA4lln0UOs5s26exm1y1A/zRn7mzDQ8KwdpSZmW230st4h55Xy6kkZ7eioTSkoU0mAIBUNxXkMCwT3EfpvrPTkWvTyZSz3bAc00rBNlC+/kztzyxddS1keXrUMXtgxz8niDx/fXLrq7Pb5hFrZhey3Zge+evtsmLiwgafd+WRQ5a+CufO5+0xds2MAM3BcpbPkJm5cZSL9xZpXU3n7tBf4W1KP0ZN0D8Yt0Br4HWp+z4XP/uXKaBcZqrWANs59Dhzaqno0k2Z79UWcx101MksGLprD+m1U+bNmz0VJFN49pJILf400cikgUfztZm6+KLz56xP5iqD0aqbqSMJoxX/riG3e22sy77SKsJ4Fu0P0XD6lk81zB41+dWxrFvpkegy09CznHNMWi0Zl0oaf1q87JjL5xZUrVJGumgCOp6M8Oa2lwNzY122PpFMDi4RWzUp3JoQE1ptG8K9UdXu7Brcyk8U8jN5lDYaBnouIbUL63d1hboGqk0zwkbZrnpgMhOB4a4JzSm8bJjnEW9KgdD952QIeFYEpGvwXzHvem/uI+o2lds9V2icQtyUF2Kz8GO+rFJM+RiOW4rSTGs/WRG5+YrJycFzdrYcDN45Sr6dwa59zpPJkaGyjOLpOPGjnM7uJ+ietMdEHOaxj1KNiGh/PQ/dw+WgbhwLk3I6piSxdtVxT1W/L6lJh7LHtn/O2hD6BY8KJmlMKg32N24jicSsCVujm5ODCHlPBF9PolWvUjIYp88k2H9qh6ucD702pt3x993qXpuCrUupaXh3yexPHr0NvcHgRqhCvOXiNHkUNSuucp6veQ3mFPXSxNlbNEKgsqexm/A0UiDaue+5CWc72mXg8WUqb3HwFLbcsPyXp/p5qIZvgMpLvomJELHRNd6W3cAFhv3jmGZl0v5VY+N/zPv1rnxe57cC2MYWgqW4pMqzO5vxdZBXRkvF8EgBOybDjPcVVS3kpfTEhlk00s1NmMIfqza8ju74Z+T/wvMUoWm+FXWHDflETBoF+v11Sh9/8R/h3UDK6WV8ZsJjAYhH3OHAD1XEBu3dW6ifS9AInRbGs0ym2t7BpUqUz5zYoyraFVyUxDxli6v+V2xdMVCJPtrL/B/4nZkzNmt7oCcHjSJo5DEltxQg2AtrZR0TAV11ItjNRKit71S3W8LsLyBXsvVg/Gv51nbgSIQfzy09oTFHRvfN4UlhiOpWw8tK3g73kpaS5+qVcUHuQoHHDFphwpCXah6MNjO/czl4/679QwKkze1NOzR8fFpyxSCkhidzwnayAdtWMzXBr+mnPiP5MWXDEPOD9a5Od4s9p0LkusDJOi+B6HLxc3r+QgZByD5Tkn86113HF3T9xOTP/e8q0wPQosAqh3v+E7ipl4RG7NSpuV7z82Z5t3u3PvFZOwmog6+jVzTW4H+C9BduqaSXzJzm2elhuXaq2JFxKcb3xJpeRArUfdhTLu3VIovg6LSN7k2/mfgCLGJ/YiFiPLOOoHEyTxb1o91w4vif1eU8MxZZuRPSziZDkqwiepc3M44UuUvgDbX2hjKd6ia1cRJEn2hDnc5dDFCbbX3hd6N15bpJD3EhGORI0JE/s9uIArQXlJHN0y5jCFQ9dIJ7jCwzI5t5bIZCQE/w2ChX4kDkWxjaGHu8OcZNf6zce6j/NHIkwgzKpS+zdo2BBK41zdZm/lu6uAsNv3V/dwatC6Gd4JnLv4IiCNbHUvfU1I4TsgsXmOacb3aptLt2cS/m4VVXIktxIKXxa2/m2rG5SZdL8d9VaegVc3II3fN5Xytu8Hb5NWzXTukXXyaGACQyWfw+DRiyLjUT/mha3V82IqDmcJrrDqXpcuWF4r8C0tkvbnNrPiybxtZ3kcbWY6fxi3fFOde5L8evs6m3LKi0kXXdTtDj0SWsxSUoKjvmQkJaJF13VxFhCHcIqngqGZgxOb615l4iagdaYLr0mszGd6UdEbOM7gqKle7u+ehTtPXjeuSH1ozniq/Q94ecUOt99XqgCpcKVPgX8ikSuhTZ61QKHcvVZVssSbvsUpy4x8Fr8wHyBDnOTKrQbzUQGCIKFLFpGmxfgxbqucIMu0e7z9qDXG4xUQ0xkHNU/kh4pu3vvQfY3X7qosUvAAlrjav2GGIN5to9bw81bo2Gi4pP0SynpMUsgX59Ytq+EDu5pGHveryoZyF7Op+e+D49s253ASUUU0nigSY83qZWbnRDhQl1S5xRgNxcuM82inLdVDKM9ffReOKxt4yck3vIJAd5dnF8VfgvMPkmW93Rdq9H8TyYEWve0roWbgtKSdO2/64GsyMzWSm8TFenTsbObbmybTv/R5eQR1aDoxE2d6yR6irmSaHYxe1C27Oj22IyyGunSNpfk3ey2PnTs70niswtIYOSuT5WBnb5vjcbFIpLMsNhVZ4tqcWNE+XhuGDprB5wc20pPIrY8CKhlAyy7lXlYkQT8p8rGkqYe2TJmVwjq+4pptsa/oPETVRVUJPhUj6kRvOfhKS5S2gm4y9LuOlzzG+kmmiqsXJyv1CYQePll0IupTCM1C4wTDkRRGsvRfGBHbGB0bjxBOoa4GT6gdRCmK6KkBpK6k3udi3BTTuxpgb+Imwd9A/B5aFPNEYRem5lKhHd5jGRNHFqdHkBy90NDiTeRIpza7vkeXH1ilf8CgbHdKwTsCpNwsUOiQ3UbRCTRbkJzzzdcAPzWorQMrfIDZhpnXsUTwzE2d5KFsl/6bp9UrWbYz/3qC7G4N6+4bISQiApmqjoqHRmCMfoeIXsXbezgof7Do78WI5GKa7KjPQHjhloq/02FmyfVE55y0DxSdegTnu9/OMqNeaLtg7+kR2SsFlACfdL506MieohhyfEpN3rXrutRFKdXYC3Qb6KgSDqXIzqaTIMW2eMhchCAzUdafUTUzMHOZkaqZiQE20tQ9hW4eqzk1RgWTwnBPY+iabafwfTvfE2X0ry5Pq3VMcfo4QmM1uMLD19QupoCAagFVr8PwSMQKxVts6TwIyytu/LuekUxgfh7oCpC/9IknclpSSjAdsChC0oBn5U/XyLo6s6kPdQXIFSGNwNnNXY1NngFi3d5D5ogpJ2h0nZYXKthH3mzrM/kPdDcqai+5X0Y9X5TOtE1rVOWKm7tb7VaRvC6ijsDaGzC9l+jY+CYX3HEVFyrHWkohFkGu1eL2J7arI5yhlRxS6Ual4a6d/yj4ZUaO6WmDb67xnxy81+PVvsMG2FiTh+wOQzMs44vnmmcQwR/PytDf8RwGBIHwaTX6zkUG9Eq2Is7WJbn2Q3lEWSmo4Z+rw87q9bbQGmVTmzNbP+bqQcGGNExnuaVgmkqvLzcESkjWBu6yb1HZDNZSsehbWeUdoL+i+uVvUtrE9ueSQl1V/UztHacFJhTShSIqXJFUBu9CsyxeZkqlbqrEovBiU4HRSr6nz+bjvswOnGKVQE4wnfVW/YnUTJCurKTY8t+gSQpsDM6/XVI8PeDXUZkIqyCzDrg72Ph5dPZnnToehnMu8ArGWFdWytOn6BnKGdY+fsOg/tpxlWL3fLDDfuCxWAjIWIl0RGxcxLYoJ9mgIC23xc+ODBt3vLXEziHl74a4r++6iW4/AyZjOstasx5sbzfxKiaqHxsRHvPV2zoyjEvRnohr1GQmhLM9Q3yi/GPsVy5J6WZuUkfjOKta5NQxA+mqWX8GHwVc1COtT+829ciGwUcBsSu6tx3Qk6atJIdSjgv7UaaDIomLawAs5xGwEoD9/9JFyWpGvOazrjn7uShTG67yr3p8KSwf4LsV/yxIwakHR5gMFK3AkIYl6EzAwVY9rSsVIRvFdsm5Xx917LYP8/PbJ0XZZVaUOxHzPz16BamyNasAwRGZzPEaY0AKu7sgOeixp6DyEyPpEO4ZVcXj58mE0bigkvM7t/DNiutDaqR8qSPKGTOmAUTK1pUPc1JMCSzgZ4g5g+AXlAp+T1jUuaJhwjjhvIT09CTOJibLRbGql3lnB8Ttxmh8KrO9zs9zATm228w+Xr9SBWLN4eAJSGgCPG4YusYkrGqsBFYDGUgzBWsz9E6LKtdDGk1RfL2K6i0C3R1EVotBYOe4Vqt/2Dt0LJc3Mit+iSmH8HS91OhI5jnaEI47R5wTTEY1cWeg3tF+wucXyFCcKFTMMi86/E6ct9kUzYQGssuX1OmJMO9Tk4qlwAypsmuAs+C8m9/wka3sFDugSCwGmUKx3yvR/foeYeuwjvMx0nM06zm6WX/MxIxz0p0TFW0Etf7AcrPbsk+cL1fMF4cHYH5ci4TDgRRFFTq98l4utS/T8xTWvWcOKnPV4sCnGX6Y5jU7iPW0D2Vvdi3zTHCP17MrF8n6UzBpaCAu/SpGMOQCyvdIP1+JV63HIffZuCA1HCRfMvMY/RKbfLy9cIc4oLq/j22udaGIR4JQCEoppCrTe2RZCo0x5f1TlauVsrWv8ynb/4uK72H5MrgoR6niBAGhAgHaSVCRFG1lSNWgUh6ar4YhY/2uRAUEuRzJj0wOl6dE9ngdPnOWxwuPEs1HyuI24l0kb4kvy2X1+7GtR4jQSpAmcGcJRVW+zagh/UFDZCGnHoBFW8cE5Im/Rqw1CUq7I8aEgBvq2fOm8L4/H1SjH9U9DJoq4RkyitiNncsaNIHWxY5DirpqtCRQhSUGVN3xr5MbkbMIb3Kfr4SQ6PdR/8+P/vPzXvQar19hvgO+yBg9kFt4CkTQB6PqlKP+M4guzV1XUsEBJceisDarZk/XuQJSa6Aj3u6YGClsNlx5l5t94MQirqEHNbUwlQt/slX6NIsigf8bxI3E1wpU9qI+lQsaYX4uRsxEagOn8SmJFrZjYBZUGbjDD52tcoafb7dO7HM8VwOCGXlS53lr0UnVsLeIUD0siggJJYLshJwg/0XvLsuTQizXOgcoSAf0B8eHq94VDqLNZxCtk2sPu+7pvKtD0LptfTuHL7UOsuG1xKqYZ+mwPYmq2HlOzfUICIVfAwHHJcJqno7IRC6qxrv9uVhNJqFXF/l9+1JvpBOiiLwwuIdWisVmlZNpgSngktkSMAnJ68ayiCgfMf6Ug9xcVrKx8OXc1HDd25S1nP/XGUXX7i0GlwwAgMtvQQ9bgwj4NLDjUqSH3CY3kRPmO4qkodTz9+8U3h3e9msbHIgtexCQl4kIUbk5jdCNPKxQ9S7sHGxcXd2xYFF6ipmBOe4YWX0cMtDJPDxZCZG3yb6L8vitWjH/okPM7kqj5S9/i64qQAnI9oPUhLQCoB5vozV5HMCdMScnqH/ivSKgNIRiD3xtK2vTdntXnbPfUH0gt/toDH0E50uO+tFgQ0j0IBjCQ1zPeGeKL2FeNidU+ECg3+EobsuBttMx8CxrCjSX8ixXffzztJW/daHQONPCbiRjTuR3OSrM6OB99cB8cCW5i6tMryWU28J95kF8/AmFzFvZOagADuIBX8K8FBpfbhzQ9voG9bJ1yAJSnutFIs8SCPdRgyZ13prBDw1ibP22whDFM114tOHIsDhgXt8+zcxw3NyXe6vXorjFdriMFtWuGGT9vrKSR3fNDWw9+mGkASBUHbH3saUCa67yTGuqQIu78tTvlU9acr7mLwotmJCmkCQfOfzedmcWb76g+5r/gEFjTT8xClRypLr/XoNppJqqhYlmnyMuY3P4UqxZ8pAanAW8s5vpdRsoBoBxG0K95THZ7RX6C/FHN4a88etbvv6O1a7PWr/A4zHsrGAMg6udsy9JopsLQZwCMEIRE+C5ZYpAS/eOt65Jp2M/V4SOt2c/VJEhuS7DuxEq5VrPwXnTVP4WrKgmioFLzHkMTdWCoftgYBQz1BChrnleeiJOMBaGc1PNHcC0L09UKDurpf/uRaqw67w99SwdrxarICw4dI4A4rL13vQR6N54EMxpxgQOjF7GBYeecCUD9vZErfDTM/Aj1APamnvl3vyTMV23vov23alXfIZuIcbAOvxKcmOCG1EFAbT8gA0AwumfhY00wBBV26vY8j/qEa86jtqeHzW9b31THe9JeegIu7EtqRZuqLRDgXtWeHSEPzxcT14AQCuE/6YcabECcdd7+fqp1fX6kbHy3utNEfE7SL5fLf2hIWARAgOyWDDNbt5+5EWLVOyi3ql1lJP2q409cCMFr65XD+dq4aT9PYL3mMUucHfW34qD/2RBpImmaNyGQ9bQq/p8T2lbQOF8/fEm6GGk6D8aftdpPOa28XTnrab6LQbX5Sy4BWxzEUXn3GA+BbShg6bMVKI9mJn2XLmfLJEl8UlH/EBvgyuwpav5XP32Kgf8lz5zwZGrjrN4XzSEaOzJ1fx6IpBmI8Rpi5U+nhEkGGOLezJ+nglko/DxuUgNFMxuBvb/2L2u1m9415w9lTOjPoORza2/+oG0cDIsIqkrtBJHijpufJUId2VrtccdkEViEaJquEDDNcz5vegw+yRaxABPtCiFTbuyRgBnE/I9mhCzCVR6YclYA8d2dci8/v5GnqTnkPNZkepTNjjR7u0wT7wuomzzKTZq4zTFpYEZq4c225fzakdU6JFnz5BJV6jyp9Mjti/dXfoLdPztLUfWRT9n0V6OXyn8ZivgRp2+vZVTAwbuHte92DAKgyhZ+xadcF7dojGwFXE0ZkXf1yHBFlQ3czoDc/D+l0uowKp+WL17zRHenNS9tIdcui/8jd62h/FXMMWfejHP9BXy6FzZX819H591yA3dLKCYeAhGQODpnUT+5Rud9PpUk5zOyGESAPHQMRcrYhj9vnWKxkILCGB3wSuMT/tTEDZKbGqmVYTq8RUydsyNfjZSaRlPuVoPp5KcwSaAtsQe5Xjiqv4bTcy5SqXc/ZkRXiIh3aC4eGhhyXXyGbQdU3fHmTBCQ2aqhkA4sjrhudzLLjwtyiRonSXW/WHpcEmAWsFYk3njFYCNn1yqUKb1anwdZGhwZ6CvFqgyhSAJPxCtlr/zyX5YdYBBc9558WBpmkkRNUkbpUq3VaVPeSevZrzJ6VKAc/q3Mj8kb6HxmztEgCxxcadZ/CLHlHL4IPkGBYIaoY+teit1a8z3K1L4hdOSKU/Ns69CPs5SKwaZhyhJ1yLIBXAbxZ7WiX1Gy3kMXjp3CvsXJQDzI7BgGUemxMpmOIJ3VesMYFPPEoSnodfiDoTZrhn0EyDFJ76HXAG/bHQ4oFFhILG9gQA1hoh8e6NAUjZlStw2E5zMPruPUw0VY4+mmPI0ovevZuzbbc04FzSZS87zPBQeQaI1hf9iOKdKig0hqaXl9gt4TUXEHbC4sc7+FUP7LKw9kdbcv6pHys5TpetTGVj/ULVq8OVcBbZRL+se0rPNFf011JtF31yZVsCVCIFRge/SkfgqAfrK/+/g+bSqjgBJgroHqsxRU40pz3W9qGkYDCcuE/lIqdvzjJhzU66CLYFbLT24uv8fxwGY2x2AjwBn0BhAmpTkN+KPKuD/sFQiPlHysM9CU9yLAY/94m0e2sBn+tHFPN6eYCZR79/YVTl8swtKDxj2L4Z5lMPnTMD88gFd/gQLyY3QNEmZTU17qFW8QFDheBjf2N55JcC2TbDddpXk3VeVZqHSvhkP5thEMjLmFmnRmE2Y3AsS8m+6ZDVF47vO5geEKfDwsALOz3WSaOa6H37x8Jhz7pqkFArOxaYwv3omqkGMjqGCAEE5XpKIZCAXEa4jyQhKcqTN30a9WPeMqK332QAsydyvudRS2qLIZckO/v8f0XYQwgDNERAKRZofnJGSFgNkxkQ1k4FXbaS+nIy1TXbbHKTpUs6xziVO7CRufe/980F89XV3UsvSoE7eNYidwGVxgiI0JMQQhLFX4Asj7VOEckTC9XV89pequPxl6zmHyf7vZ4Lg7+fmz2cJgVeTdqnFuQCKf4ug7gEHj2xw12DYfx4Mz3tQ2CHIKMdP2vN/zQL1PZX6JT01wqTapweN8PpmKsc5aE9IdK1kI+nzagcVhAKeO3WxLqcaGXBexwbxN07Db82vjfT1LhTpZYqU5mIax5A/xkEmmZv7vCvwLsQDMd2ike6YS1AVDUFaqjOVe8rFF+auR1jjJltLw31FvTxMjFPOn/ViddfeqXubrGMahOufJZmGCHWpg+F+fnIqvhHJWlkiEpH9NIyu6CQjlfx+VFnJRUvXQ2S3xAkR98ls9vS4A3dj2RAjvM9CxI74E4nNvUYWHuSrMP35sLJJp6axlVZKD0c3dJ3Ib3jvCsFz/eXIqNLHJOASQwSpHQlHSnMZJ8yR2hyI/LD3t4fPvcuo82iJcB3mr3T4UTNkTjCyMQRoHV3oXeURpE/7aUGoDEl1qRDKAK4q+5sgq2BVb1J1LitXy2RS7q/bXuap6jvHpN2vDdZMxisD912EFHTY5mjbtzSnDEidlMhiIWMI7a0UJCc0eQvw8Hv3oYwn2c1xwWxpME/fjwfFLQaSTJqwCBrdZBPigf6dDcmbNfMsYQiMp/erDR3vFvfZzZno6av2jiQ9Hld0Y6fkov6wVug7DJCE5E2jjhFFCYYzgFlWhINKmPPz+vWM+0QdQIxkIuqmHCic/5qXgnQ5Wxv+rhzetdp7AokyjyTidJ4oVWzIextpre5C6BDwtr+cVRJMzki0NOr441KEYtPHvGQH/kBiOhYdhTcuzS3drteku3A3JwWldHGKGd3Vo1pq8diSJRjCwlzxf2Kq0dPCqS/1S/rsWBtEOHmK0GMCVgIHG80+rhIjIPV0l+yk+EH1rLd7z4HMnVeBuEFs+IZ8hNpybuq0ZfrPWM2pALa5jlEc4bKpi2u2qRi/8Eut84YTmlLlK+Pftuok9tW9rt7i+JwS6JJ+xyDZG6BmfgkUi5WOYsk/aUgQgyP4T65VVufe6/JTYelWosJYTh+v96Te1zsdsOJ8waS082f8CiKTxs7CEbYhmq8VVzcNepskBofqzNGDN/6Kn75O/R9FFztIYe3oixolpiLfrWm7BR52iijkSAIZSY1OPWPsBbGANffs4Fj8fM9vWDwWv8RY56cbxd/TErv2Ljh/iDql2fm/L5I4hFnN1X0yCk0WuISaOac6zZL+fgloGWq/H6RbVcbDNpioB4Qni3LBPVW2nKpIwRAOq2EboauoLFTiVx6+8W4ubu2p2T63JK7Fuv+NbYbHpgRN0VnIdhFSSElGGK6q58oHdPbjRrL/oe79dJCpfDwZWr0ULm5myf+4Oee4sQmAm0Sh49zRUTiYQWmIE34aNZKHJYQ7eR8pt12Mfd46vv1kH/FLPf9hmxc2jZUbUxqlq8JgmiNdy2Ah8I0KorJW49WbpK+3MOqDUrNPF/WN/qN4tyylH6r7Ncl1VfiQbtdyG4GbkIlIi53NZKpnHY/+bFUvm+npTaLzbBtWL0Lv4gjgWFhkfRBwqlQaCp1Fy1ZrjW1sk+JU9HApLF6rlqHIUxS4UpkiQfz8letuYYWgtO55S+QflQg70wdzuOLv9vE+e73fT2fqkvlv7rsSTZ4ooA5Bx7OJRHz7lmvJILTuEoDpcY+4YWYxDW7up1Zb23tyng+1JqGr/lvg/eJQuAO3LlWqcyb8SyKvuKsjcEQpyuAR1x4Cf+9bA3rflHf6fJVln8J/6Y7KpDgsFAwzatxd6PIKKhxQ/cHiTebLMUWFz2JQ5IgRnJPRZU6B8uTbCpkXibB57fqo9eNW5iOuITjkl0YcJoJAQDyqeHPmMOIwMSIkdgziOG3RNi9xn9JynMYRmjo9yCI9vHsolFyATYhGLRAn3ehxIXY5fVikz4lGEcqjx/vGidvzaUJVfIvYFQVSxYsZNPH87YzfYsXoCXAmxaAUIEXMY6e3Hcqxhv0EBM3z0q6ynrrXynudFm8A5xNlrHfzjtNqSLODdSjI4k2+EL1494Soxu6kKcjbOjW85N8U4SEJoJs9JXSvEYf3/Nd2/xkaE2pXL2BBzRPWb9bpw2+OSRbhgqzqT0AALWJH/XkymBcL7OXNq4Z39ASAHOJlCCGyZDLtgV6fhwihNfPp8JzXnEoAfBQZT2VjbIHkE0slm6poA8lXmNO/X8FhcosbZa+s7j7wmr0m9MokbQhU8SjhOmStNnoX2uHvQALwwdqVB9r5UDdhwVxy2LR3dtg+yI6tlb3tQBawCzYwaOe69YfLlzmIjFbLw8NfvvFHEHOBgx2SSaUQxGJ/0RefiIEDodxbXNyOtEaUnWXRI5Y4EEXV0FNu66fsDy7pS1kGEscPrUMM1pr4tfviVbFSk99SO5/TZRagjNc29I54JE3enXrJsVgW1uYbLTv003bzyNfamWbZi31/YJ7dlrHruf7kO6+tTZnvCCtvWmSvc9w1JmRPBGSOv8e95//i5JvuK7iyiyqhEg4UqoKoI14jBoUPqIxq0QOzXkjYsR7y8+mLKvk248HPWx8x7dPhkNCuyV8V0toeq2mjzeUeULecqNN8QRrPHMCiGBYIM52G/GXKj2ZCsI5wIPPeOjqFXYvWnyM90sHxrGhssB/dfsui2tFYG8Ta8DjSPQeXB2KaFtscMA0MHBFGRs/py4HzIG3Q8K9N/K7m6Q91ok3WX+o4OrAsxxseyvfR1PqC6OEVX9kYHO1flU0Ri6/4optloz36gl/rXKIKKVHsulC858/I27DJ9cYOOXe7Kkc5JfS9y4x1HrF6aiyB5ZijB9kZns8XfeLFcjp4reUh5oZ4tfN/by44cg9hDTRcAyZ9EiHphUzaTVWf0QwQpAnyvHzeQKwApR1wMCNXoMtpGQ5NmvKXyqVvi1+j2C3OZLobe4cC4bfKL3QbjtnClKFxdQMCHVtN13tFkPQF/w7UmXGr2dAs+4dVfPH+KmUEplcoa/+TlUGMRX5VQL1cJBPMxRjtk6L0oACsLZLlGMlFqCV6CbwCJUlLxaxBa/Gfja5R28kSGhbf8/eLI4iAhoB6gAjwKL7hQoIYtqlP9dyW86QCgHYhW9QQFNKUNg+dSpT0pLZIdW+46sl8wXv//VeyLYQsMVZY/XTVyl07JtYfevGACxJXAsSryNQrPhHE0bVnSjoS7qcKs0H+mvWcuUHuSMI+oUWGEr8E82iUOGpG8GUHYBlMiXcfTHEXptJJVklTlnPkdd4dPuI2avUUf6yfPt0l6oLc9raRuq4TJjxtssBnsdVrx+BXULskPEywmQ531SlQ/tGkERHujXeNK309eVXv4Ik8DGGkSAd1Tes6397eFAqjJFJJ6h+QuFDBGGgVRJip8UcZo88NB08UVjro025xrbNVUql6WTEChpf8VYnsveandjqHLBc+im2HRtja3P+y21orUKO9jgmhqopdBw0//DSrCCSHEe6ZhfDmUQlm8uEGqWjQEjCOrfXzJHwaS7j57I5vpf5I2fZfzkdns3J4Hnjv3KQ1kWBtIaAynOZKHJdqO0WavlogB+CmVFHsjY8naEoPmTYGTg+nT6v3eydsjYa5MsAw79gsAKBhp5q8HpT+eubVfBRGX/tEtLPvqJfBiQPAdQAxVXCOUXIRAUG4UOMZUQHJe7z7RRZkN1WqnU/ZjE5k20tXWw3VtlZ0PilVrGErcVpiDNupIr0NnZolKk3zqkakFPyPYylSgBY41TCpc6hUturIixyKnRO7JQDVEIr3n8ZQO3v8VT3Uf/gwiLitPVsdhXpBtnK24hY8AMUWfNFu7DUYg1c+cAsEXfKMvrb0OSZOkMmJ3PGK7j2F4/hz0VhDY1Bcs7cMx+nZCQrmYrjbfcz0qJRxAcwDrOHRDe0mmMSECDeFQvL6yH3/sVwnXjOt5ap1CPazxwP971ij4z3gStUxBxTfHhkfKRF4IjFxt6p86J9vCk4+t9ebgqq0l3LGAwg4BoPT4XIkNdZqGPd3+mPBxwg/ELNjAUGPvKRDXF3i6fHR3DfYc3kQyLpY4q/xsoKvEHB+YNAD6xvw+id8iKX5zwGB3xAgrV62U8myptxu7Bwz7tzNybipkleAU33/t3o5VeWzcQ68fYHkkV2qp7kpmIeR7/6UsdwynPSRwfymGxwZ3IdT9IiIwKVe68q7wt1ySLj8vRqZmf297p4CDA6KE60I6lzrGJBQOcwL1xBwRhRlpamaDA8qdN8BgWNl/L767KH/a7YGYt0tuqfT49680DUPYYimJpGBE3kjHSqzbg/K7xsSnbw6r1OlzNTEsHY5r/giA+fY/Ki0eCioxNRJMve40b7o3pRnC2mQJ7FULOscbhNgN3Iw2R7TAcs6vzLrSAAQxSeclKsjU5rWBzWf68MZ6asPc93ZLULAxlU7YkBBc/sbM6hZanJQDPW6/vDGSv1btksJDEIap4I98F3RslYUyfmLWKW48kso3l0nlCPpK+41IIMCMMD/oljCVDaOHnuT3MG9fUypaLGkjbR8UEq6Kc3q785300yCK9aPMISADCW4+bF4PKND3Z4aCkJIccaEs1x1V75fmUxIOXsSS920cp0GzMcHNzjPf02ynXMGlCN0pOAyfiEqRoU6A8xQpmbr8VDhfHQgpkuEqaYSVC8AX/nlowuj+9kSjCIF4oHqvu6tat7rn+/+XL2Xi0rTAyxpu3AHxhF+dInJkQK7Y511Q7LUInNQoi8DPqtHgJLi6rpu/97aQ5UaoRLEt1Gtgs2hajbtM/WFn2C+HRHHfudEmIEZbHCNl7LT1ea5+vxHZRJgI0PWuol6a9BJtufeML79Bny32+ffyuJCBlMvksADZF+WUrMHrn+tO3GlsKit/yA3OtU41P3/Qp3Hme+7tmx/qpi9AaSJqytk0T5bS7ltFj4sEb22izIA6zs9YmgUj0Y1QY8YRQMaTO6gb0a2q+NRl9jW53Oep+lxllyt7KRUpsUFLyR6GDIdQrdvEFDu1Fc9zMu0gV+HYo23jHYF2xDwM7mHbaOy9x4fdHOXo3iIbEHxIUKOsFAJomOJGYE7fjiESZD6Jy3KZwflkgqu69hSLBrU72Yn6zY8+dk2D4fNeKAYilmvgPaDUlO3hCTOOHFj1wei3vY0KqC7xBpEoLd/oUay2PhrzHCSxaCNiDUuzfFyM8DT0BFn+SvJjXEAgGBCFlDGU2BKZfXL7i88ozWchV86Wbi/hqLMrI+sdpj078pVZX7SNvspKMateJUwlG5HaqY9a3UnQAkjd/huygxWy1CAJ4SBlai9E1d/QMchWMLjdVVR6MnDubmdf5RygRg1QysLnLl//F3JFOFCQ3qwqjA'
state_dict = pickle.loads(bz2.decompress(base64.b64decode(state_dict_dump)))
model = DuelingDQN(actions=ACTIONS)
model.load_state_dict(state_dict)
model.eval()
myAgent = Agent(model=model, actions=ACTIONS)

def agent(obs_dict, config_dict):
    return myAgent(obs_dict, config_dict)
