
import numpy as np
import pandas as pd
import pickle
import base64
import bz2

import torch
import torch.nn as nn
import torch.nn.functional as F

import copy
from kaggle_environments.envs.hungry_geese.hungry_geese import Observation, Configuration, Action, row_col

N_ROWS = 7
N_COLS = 11
N_CELL = N_ROWS * N_COLS
max_moves = 200

ACTIONS = [
    Action.NORTH.name,
    Action.WEST.name,
    Action.SOUTH.name,
    Action.EAST.name,
]
# Верх лево низ право

class DuelingDQN(nn.Module):
    def __init__(self, actions, input_shape=(4, 4, 5)):
        super(DuelingDQN, self).__init__()
        self.actions = actions

        n_neurons = np.prod(input_shape)
        # Advantages A(s, a)
        self.fc_a = nn.Sequential(
        nn.Flatten(),
        nn.Linear(n_neurons, int(n_neurons / 2)),
        nn.ReLU(),
        nn.Linear(int(n_neurons / 2), len(actions))
        )
        # Values of state V(s)
        self.fc_v = nn.Sequential(
        nn.Flatten(),
        nn.Linear(n_neurons, int(n_neurons / 2)),
        nn.ReLU(),
        nn.Linear(int(n_neurons / 2), 1)
        )

    def forward(self, state):
        val = self.fc_v(state)
        adv = self.fc_a(state)
        # Q(s, a) = V(s) + A(s, a)
        # Subtract the mean for stability
        return val + adv - adv.mean()


class Agent:
    def __init__(self, model, actions):
        self.model = model
        self.actions = actions
        self.prev_opp_action = None
    
    def get_action(self, obs_dict, config_dict):
        """
            Receive the state (np.ndarray), transform it to the tensor format,
            choose an action and fill the buffers.
        """
        state = self.edit_last_player_move(self.process_state(obs_dict, config_dict), self.prev_opp_action)
        state_t = torch.FloatTensor(state).view(1, 1, 4, 4, 5)
        # Choose the action with the best reward
        q_values = self.model(state_t)[0].detach().numpy()
        if self.prev_opp_action:
            q_values[self.prev_opp_action] = -np.inf
        action_id = np.argmax(q_values)
        while action_id == self.prev_opp_action:
            action_id = (action_id + 1) % 4
        self.prev_opp_action = self.get_opposite_idx_move(action_id)
        return self.actions[action_id]
    
    def process_state(self, obs_dict, config_dict):
        observation = Observation(obs_dict)
        configuration = Configuration(config_dict)
        player_index = observation.index
        b_state={
            'blank': 0, # Empty cell
            'x': -1, # Head of opponent player
            'h': 1, # Head of current player
            'b': -2, # Body cell
            'f': 2, # Food
        }
        # строим доску
        board = b_state['blank'] * np.zeros(N_CELL).astype(int).reshape((N_ROWS, N_COLS))
        # гуси
        geese = observation.geese
        for goose in geese:
            for i, cell in enumerate(goose):
                row, col = row_col(cell, configuration.columns)
                board[row][col] = b_state['b']
        for i in range(len(geese)):
            if(len(geese[i]) <= 0):
                continue
            head_row, head_col = row_col(geese[i][0], configuration.columns)
            if player_index == i:
                board[head_row][head_col] = b_state['h']
            else:
                board[head_row][head_col] = b_state['x']
        # food
        foods = observation.food
        for food in foods:
            food_row, food_col = row_col(food, configuration.columns)
            board[food_row][food_col] = b_state['f']
        board = self.centroid_agent(board, geese[player_index][0], configuration)
        return board
    
    def get_opposite_idx_move(self, idx):
        # ['NORTH', 'WEST', 'SOUTH', 'EAST']
        return (idx + 2) % 4
    
    def edit_last_player_move(self, board, idx_opposite):
        # ['NORTH', 'WEST', 'SOUTH', 'EAST']
        # CENTER BOARD [3, 5]
        # [ 2,4 2,5 2,6
        #   3,4 3,5 3,6
        #   4,4 4,5 4,6]
        if idx_opposite == 0:
            board[2][5] = -2
        elif idx_opposite == 1:
            board[3][4] = -2
        elif idx_opposite == 2:
            board[4][5] = -2
        elif idx_opposite == 3:
            board[3][6] = -2
        board_rot = np.zeros((7, 5))
        for i in range(7):
            for j in range(5):
                board_rot[i][j] = board[5 - j][2 + i]
        small_boards = np.array([
            board[:4, 3:8],
            board_rot[:4],
            board[3:, 3:8][::-1, ::-1],
            board_rot[3:][::-1, ::-1],
        ])
        return small_boards
    
    def centroid_agent(self, board, head, configuration):
        head_row, head_col = row_col(head, configuration.columns)
        # X is [0, 11), center is 5
        # Y is [0, 7), center is 3
        dX = head_col - 5
        dY = 3 - head_row
        # Сдвиг строк - dY
        if dY != 0:
            board = np.vstack((board[-dY:], board[:-dY]))
        # Сдвиг колонок - dX
        if dX != 0:
            board = np.hstack((board[:, dX:], board[:, :dX]))
        return board
    
    def agent(self, obs_dict, config_dict):
        return self.get_action(obs_dict, config_dict)
    
    def __call__(self, obs_dict, config_dict, *args, **kwargs):
        return self.get_action(obs_dict, config_dict)

state_dict_dump = b'QlpoOTFBWSZTWZnYXvcAH31/////////////////////////////////////////////4Eb/DovsPe76bb26+327vtvur3b33K+2+9d759dW+7b7p8rvPvfXt9X19eq689t2G3nqPqlF1Ya3YHO0qtjJN0RDtmzdvGj1T1r5fY92qe292+vG3tte8ZL2oKW1SFfQetDpVrT21pvm9vvvvtuuzvvZ73fR6e3XX2zoe5nfdrb1c8XOPt7r3fbd06RBn1bMyvV27Gmt13G7u61dagLa92Ih33313Oeva0e27bbfbfb772veth2Mbu7zt0GppldadefcOd3vRlT8E0JiNGEaaaaaGgBMIYJk1M0wInghoyTxGTJiaMQYCGQaYmRqeCp+QwTIGJoaaNMmCGACYEwJppNgEyYATTVDKqf4AIZNDJppoanpqbQp5MmBqYBMI0xMaTTTABPQmmAjU2FPCZoRkybCBqYBMACegTJiNDJpoyaBoyMKPEm00aGp4g0aoZVPwAjRiGjJiBT2hqaYGIE0nsgQ0zQU8GI0DI0GmhPQZCYIYJijaMjACTwJqeRJp+BDTEaTaTZJsp6CZppM0yTMk9NTyp+pmVDKn4RoExBpo00YATTBGhkMhoZA0p5GmCMIynlT8mho00m9RkGiYaGmjKnsmTFNkyT1Nop+U2mU1P1NojU/KbQmGQMCnqaZkmwmmpg000KFVPxCNDIaaAARNNMAJpiAwhGaBpkwjIBqeQBo0YgDRomjBpk0000DQaaBkaZNDTQGiU/CehqYGmmk9GKn5Bo00mZNDVQapghAAmCMkwTIaMJglPGmk2TJoTDTTQaNBkTahtT0R6VPwjA0E8oyemiYNDUxMU9oaCZMj0EwNE9JmpmgmJjQp4ATCYTEpf2ANUqWhJNIBoAAxWgBezaFBSlVIYxQUpTHABgAUANgAqyADMANQAQyQSSCTFJWNKQ1wIBvSJdK6ajCb6VxyQFAkBjTS5OpeszGMQAL9RLMSnsvl9eMZ4++b9Eq++pkAHyvItADVIAgAIEglPECQCTsiSRxVMlvBlMTv5Z3XiYx90v9L08R7Lh9lHTP2mdTtKDaGUryqPWIGADgKZMWfajyKIuN4A3CBAehj6GjEylofskPtLy2EreeJjBdhM7/5OnJln0AGXzxgBdCADhRCBXQCqSQ1MmCpAf3xppOdTKMdkfg18J/dqU42D0WBXZVtr7v/TaR0tJpXjOmL2tEWJ+1O/9rBGHeYFhSTAAR8cGe7YbD0+ec6CF4EJOyttyDZsAGccAIwAGAEg4P+k/nEwAiAWUKoA/dMAfFmt+3elasZtBlE5xRu50VrvQ1mflv5mrvXtDJ13Laq5rNrGAaK8mEFXgqaAAAAm2bhVHea2pmkRO/8NjYzY2FuAAMzMRiDKGxliF8/x+SJq7ZcD5WbbtLXYlMLxteQezZBIpARMjwAL5O87q9zUQxnlpmDAAf/FNJkXb7u5mNkk/ARYnAftA+v9O7Dvy+Zt/j5sfrJe+P7Z6Xj/IZyR/LLEM/4iTCQLeXkquKp2SrLKAHV6uFXhdrrMFP+SrvmXT7WW9NTd0g1IICfBgAQARTNw7EIRCQBI3UennvRb7gmptYfdU7Ok0/Uq7v3tLmkStH4nT6HrgpfHHAA3jchEmXzSr3A3vo8GTcw9fipEnckUE3Af2tgAAEk/fcklgT4hxEgKArIN15R9q/WeH8QuMvSE+Q70Mkt1b4b/tLGvPjGhEf+m9wmHRNSFEL2LgAAAVQSIAnxI8HoKKF5rkU9vcYWmtubgPWjSNNNWvd3fLc6oXYAAASoWK1Z9hfb6C6BVN0kboVX7THUcoo4sc8YCD/nYav2iw1nhXX15hKX3YS1wbwzD5pAAIY8Pntw8VoyTYAMyWkq0pnv505QwOPyd9DVv02/ZtiCKEN34NaE9sABU2hvgWtyU2UrFoN0Di0AmmnRAoutfXWROgvP8mMfHTlPKz1a9rPufWyVHfxh6aUqbZNdaQ0A6Wt/I6Fm6TLrT4TSKkpqZJBP+dio5wkqyH1nbVNZaCrZjJH0SoWWrUWXuUaI6gpsKO1xPud+1VXp/wpcRNlNTzG7DQ4a5WJ513mpPtSUXXQiBh/U/lyswiTGAkns36EAiyG+0WXBAYidbFQaIgvg0sn33P38u7HchRAOlY7vTTOFw9Zftcq84S4Xdgy22jezlZLD7nSOHHf90slYzgc5aTiA2IZJn41IDnsAAKv+Q5FDasq3pITySmKdwtttnh0/sqPfttjxvOz0AAgDvHIxxrvowBnDgDqIWx+kWm1eDM9+ocsC1pBq00vuO5KHTf68tJerXBBp+jEObWA4uOkCB9fMDL7xYAB0FPW6CdPI5aAUqGTtSyfyvfaulvXzFSr/iPrF1DREoGKUeAGAaHAgjnOQtxBYRI3r5G1fYVCFdZmurGZ/VxGSipiel3fYqkUXxd4AsXOrX4HdTaKzuQP5ssyUH7nPOxRRvaGqhC5++40RQfgmSFU+m1xcyNJgWJyjZpKDuShsjbRZX9HayYRnpW9i6ijE7T5CfrkM70kvHQ12HeKF57t/NZdwpJR1MTwbXrWI4ZkUwANtGXZBcU/6H1gP8sSW77DYa/Dxiz5DizFNElrv493jFehuCCVgfBtoXK4ASzF27U0+dmLDOg7fP2jSG5Q5yp8UVoJhescVa340388qbIFY5cwyVV9gAAACyuBd5aFL7z9k9pbBSNP1NRp5cZEMd4s4OJhtX5GOpQHRR24Emlo/DEtsjYSxGMGp7vLIsQd0yKj+97d9Nx1PLFYGIStjY/AhAvv3jXc6QFAfwgid3Bv7FNjslmmPBP7XtjfhEaZd/6MhfoTzKPZXsCC5658FlJAWQRwIO48FyJoAlExR7U+K4fl01jslBT71W/5CwdLUpG+BeZVYj37LEtKPGLn/LZupLSLgAB6XVFO6NHaIW1VbBx1b3PhgelzkgGMfoWjc+WO+DLAtwC0EPuMDu9QQLfUQ+bGk+O43VUP3fveJ6Yj7PnT/TzFQrUmphCeQRdIG4/JykPpp8acInijvoCOtk5qv+QeSqQ3Dzaa7u6UpuOJlM62dtS1T9xzB/NmVHgMSZgJC9rFFCICcIg9T85v2O/xWsmfF8JfkWaDj16mNCnNA5n9p/R7gMoWiwCK5yqC4CQFJG9ux2XFZRDDiJ6bH86N3Umy8r2WfGKWRuFESnXjDYVMUH/H9B2Bqc7DtIh9Jbdaekxew4tfXQzztdqx8jhw1J2yDFOVkhp0Nm1FFh6KKAWvwyYUJI03wSeUhhG1kv7czYYWP0PIl52YyDbbdh3Ismv9QbQDKZX3OzLuALMvDYRMxQ2VDjEsfEp9H3aydUoi+lL1+juN5RbITPHCUvqD6G0DneIDGBQATaLV0HNPxdT6OgpKEuQXI7z6iy0fWxOlQcsQxyIBGI2o+umRgxegvPJkUC2C2/gzkMfDqeJ5OXya4vuwmtdtnmwamG+zww4SQAqAVKtFPxh5DthHXgIQqxNHMPxDCF/KbV/JviTe1/yK+NlD1+NNTFzVQ3ahfmhMGAIIEMHVK6pAJqdkqFId9pUEhBTdl/0Ja8Wy6up36zGaSd+fSXXE2KI1wsDLM6ikMZFYEXTcZ8KiBJlVu+sH0sWe1kZ/dMiPi/Bx0EMjNZN7ed3cUBBgLnFY2Gb2b8MfwvGpJwrrulVFYrjm4UzKB1/1Ynbo8qfN4F+qnDBySCGbReBNOwQG9kNocAdTgqglLOgQnRjLb57zNSjL05bVXv/l+KLuGvR9H/zdMqm7qdFAv/abvzrAKArghKFaf+JaBw/MGeKMChqJx0Ny5oHY+fZoKlRyKKssreFYMXrUJCYR+OYNM9DUKiAPHEYCJduOeZMaJtG5ASAdx8111V+PpWCT9gpdA6BOQMxGOOX34hA3L3UGgvQs3vrn9B2OPVyXqdn57jRxbSG8Te+Pvc+lxm07X3UFIAALbaDMcNXtmjedH00kVnca+drq/M9Xuxlw9V0mdVXvV29LryTVk/JWWnHh37SqhjAJlBSuMRD+Kkxyt90xmcG0i6Rjd3Z/GLVwTEUEbGEUsODD6OsNQ4Aq4RjmEb6E41NEldFGZ7NERE2DRw/MlHG1twCFHKDIhPQG+3SJFAqpyvpmFhGt95dVF9ZuXkCIn8/+XtiU80CrodeakfiOvcMad0Dkc5GOpxz4Y4kGeqBgEmRh/Lv5yvnH5DxExRpGb4uECsiaTzRWf+fw5NPeuuVFSEkM4b4PHmWPdC3gTjhLVkAeJheOhb8SJQ4G59fnQ/rlQHSMHYOVx6WkW6BnAs7QhqHyZVKz/+FhfWKMgmkgvBwoywBh3G+ghDWCpqpHlOTx5O0ze8aTmRwK5i2rpA0S5aWStTikbt5q4E9RhDMiDhYfrQKrOtvN/PhLiaV54d53822X1vdk+xRJUQArBCYhnFP0iW5wQhCB+5b5qY3o9PdILS4X8J1dzUyn4h5sqSN0jP5TPBnqEbBlgsAo5vNMZnR834Yfr8TYVXD/1ZzfenYKBBTReXWIShYi9piJlsSJVhu6y/htv6d2pwTWg+4+XWN+bDHCgIgZlCcYVYxh5CTC1SUMS0/5xhj+docrMWafnZzZK8hMSEQIxoeDVVDTuP3UZkRIQeL3978uyK8ebazmyMSJgwmNctI4E8T8znxzNPMsRquI5DTpMRouyrFE/kQJtFSBBYJbwqsm7/jSuPGCbPm6MY/7qCTxZxMSjH09qsBZfmemawN7QCAP0RNUyvvhWRkrdUOmaVP2zavo3GuVEMZwVYAAGIPYTXrt4K26XW2IA881vNnafayMYxerLnt0pomGKA9PaXAq62UwQrUTpYr7Ojo4AouLVCanCMrE8/nRSiRE5veuJSTSRmLQvDz17yCzw67SU1noUhjmcF5N+FSvTe+Gpcfd3Ba4BVOVwrEALlhl/hvCQrS3X7DmV+cyONp7Qjpvj5trMl7HcMkH6tdvDT4KtH3BsJd9rGIXCvuHktmSDBqgaILZCuuKzf/FgKUSG0Qc57lK3D+KA/MRV5V9cEO9W6NTxOpIsxPpsYQcvSHAwMoeGHOJeRRYbTTwxDxPXabvOjwlHVKmruNzrmUEwLzUasBaRw1Mij86IyLoc+m152Z03AzqXYVX8btNClC4C8IIHqODC23npGnRvKxLM2NVKM0alZ3HCe5jPbvY4HMb5k8W4hOtNzRMiJALcVv15V0yNftSlQqKtmqBBYWZELCm1akwPSnmylk65xQJ8qmYqNDrsDaPA7wOWR17fQP229ZF/hO9AVtqknNNfJ7b+/Hx77aylqtsj2oQCDE4BJDHrgwXUt4TlC2BVEe9EiJ6ZAyioiKTa4Vv5XzKeKCpxSg1qXKzRBhqL9PyCbZg98WCL5IMMrAqYVickYgUyIyyvO+6PS9gdEnYl6EwvYLn20GRJB+bcZpVUDMDCf+CmNFo7CllhqFQJkHz/WUhI9k5i/H82hpqCBTzdcwtNtdfcRyHwj3lvDyqaZieAvt9PZs0TdtXVMJNaKIxVSQTIbcu2P8dsKLRVrVFS7BpL4ZWYqqizZ9BBSmWZFs/bUkPIurYEf9XW/hfUCaPiLjoz7Cj5UXf17JOiTU1QyQyFyilqLKOnIrgBoSJfr2baAOmANDgABRQiivH94ySWSeIAhmgc7XE808bT/dzZjedHzcjn6qhqblEU+AUS6iF7VsvBV/6TBcf2h0yx0t8pyz0rIoO8v639z2BPtl4ZeQNIA8GwwvZWJIgu5xPxnnEvNPU/HlUIQaBBaq5+4kPgvu4WhisTJ7lGt25CAQzyKtxAgnONEyiUTZZ6s8sRVDDWCeAEo9ZFGr8Iv15KH+Nk+rBvc2vraYK1yxjOpazRtONqEKPU1T1Hzdqr1f5j5+XwujNUpIgP/9OzoMBfCgzgPsoOoiKauKozoL+FhHSv21GOolO+XODVe5RQshqPUI0JW9bvCKNYI1diGenhQW2WJVCLSNrvWiJugpolIVAnYVID6IfDy904sV8z52mbDILEAKq9OelJgfQJAA1EJsnd/bLl8G+Irah9fB2dGVt3xioIpeNMBNDqbD0KMC2WZzJ+24dllN3jHWkbGfnDf9lvJc3YJUgi26+NZBdAJrPuzysnDKCVny8sMWUCTzsh4cr/vf4Jz25/ZP9zH2K6w5PVPFgToAT9qD4doDEAjUHDfdzWJeiZokl5m0xJiwchS4I521q0aTMosrvwuzDdVtciBHo6w/NI2z9UwvQEIQhCEIQhIQnuk33hYK1fTnP1iOi4kOZebLb785b4rVZNwQmraItkAE0yELigB+AA3QABaAANYzBDJfvFyfiScKSVIt0i9GXEDC+bxc3wVMi03uFU/iyWaVTfanlyK3cwnpeuH/yfa8eMYoxrwpGEl2W4WKLyxyhyllbPAX5zn4pTURxR6q/UMXCIAg4xi+n5KyhY9fZax+WblCSqQfyC9UbeWKdzZZ8EkJneNQR87ih5urVn0sfjwBxzj0JgZxXCaC3ugwSMCBINYu6yhmNo93QkJew1nLhcQ1fbJEPSqH5mf528zizwrip7gCBMQAz3ka3y2bmuFExyvxzMiy3FV3b3mJGfHyCgoKjdEZsTeqG1VEDPh2TDxuXBhr4J5AfXM9v5TxAFyA7YlBoigbcN14F+Fp4kG29G4LSaavxMdu9HZYv+YwtBxjgA+VzkeVTz6RE21Eu0+8cPkOPgBpggifYgpSgscFSeU2tRxCZcp1gQyrLD0Z0ToTg+ietn9pBWwMxpOjNhIBwB7c1OSHJxmfjXvi2V6c8nswuSe0T2OJlOqMzDGAggloGzIsNe/3POlY/CHIFAU5mgrn9n+99Idow8lOx4FWM0v/lHgTB0Ws88K6U4MEvpslaL1DAT8gIIPwtIZBtaR5MtIWPR43wbf9/yfbnOryfavvNOfIJUUCA+rx2wogjQ46AmBaFgyBl8yo8TaLqDuummQUFnUfYQYYFR2varv0A68TdMFOsyhqbXUcFVTX/YY7734cvFJRdhBkyEBPk3RTCUECHoAEBixKA4NxPxgLmtuMv9MVB6JpgXx6VHKmKiyJbNEg6ysBAymtV1yNcU2FFTeWwOctkOAnnzQMZChhdNDYqbY/5gH/NLQK6Fd+JNi3wfGzaB24bVzNvgkz68EluQARQQAH0XTYsnKiezaEOK6PsN2eWIDkXtiSzDADTwnWLa4ajEb7eCrPtGjNSOipbp62pelAOxvlKxdefENJ0kBusUd4/6dR+VKC8cvdP8yN2iPEaNHPr4qWxVly1PdJifisgz+zYMdjtyVQQ6sL2ED9MC9+mgbOdg0fxC4uKDcEbnp2U3Unp6SCLIC4k//O30/Uo0QBFrYH/bNdJKKkM7LH7zxPASKonH7JXOf/v21OSIncI0RJgIklZ2IhB7GoAS/VeH/1SMRyadEvl2V6Zl3fMMbTQRR5TjZ3np1yeT0+x+uCpWOd0QzADIa8VuxGEEaACAM3EyYhEkvTGcOmd+GZ59mt8vgbvbivGqYImB6oxxgZlRRZ1VDkN1LBP265jkuV9cdpNmwUdFqib1p5m519nadg/GMad8v6JqUJ9VgLUIsAB8ViALuDj+bUAAgwJGizBJryPeccTNSnalLR6WcdevbTRb+0jvRc9pHVz71Lmu/DCJNZr8kW7kpaA04qVcXsJ5b+081pZRLRAYEFvNi+ScScLZLV1wo38IV4OVE952JWIxvfJ7cgEeKg9wpF9dz5XaUahXXXFEbLagi9QGsYls/6jJ+AxK4d74GO3wp8jUvtzPscuegHvGsUkTXP8T6IenA6L82gZmy5mGWjrz3yxbj8hL3PGRgDMuWhTgJbOeqoSOP/DoQrBNHZ8jtYwh9sKWzNxCNtjH6X3VNqaDefHvPxXjUkm2xR1pZYhgQB/v3skTSFsI+otXb1QyGsNy5ihUUmKZW+1cEl9G4+hKIHCfDrc7cXaz2FVeVL+ZVjZIQuZvO2mFMOeA3O3Ki0Oqij1g0puBnmJcBZZeT/3ko97kLqLNOMUc8UL2bX7qtht9brRh3QlKTpZ/LWS0qZ9Hf0n4G6g2oit+drPaJrkiN0bN/ReagdJWl7jMpR913sOwZ8OIccQXMKghn0yjXnOqb1MKCqUd0bJ1I7p3roFji4TAlnL5rQ6kYCDoziG8bepRlPB7s7x/TRebJhH6azoOA0FHWeYv4cyValqjvI0JHANKrPE1ThNkJP8JvrKz8Gelc9ph1btZ9LwZKfdty99z0nB0WkJQdk9saJy13k7S63lxzzTaFRtNfty1t8J31d2RXeKmie0aWO/WU2nNbDZQ21SCBu7sxxUFDqTyM99td4el52oxmdl+bAUWLrR/BS9O+brUiEms78Uwbsxs+nUkb5lQWgf0wz3tPBcle3Ozsh7vL8LBw5KX9+nQynOl2z600WZ3ql99c7D6jpLkdxf9kCsW+9R/NMh6I7iMVETDU2s1zze5KP91G0VXuZXsbK+4EK6QpPgvvLfLtupNVqwm9hpzPbzRzmRVynOtu7CH09Ew1P68JI/hxilc+9+asB8DpQfgqkPrMFc+4MowOqffJGitZPCi44voyM9K2Rt7uLOM/4pYy+Bkvu8egFnBwS1I+uCzkVtq1pIIVbvM3Pt69mh8v9m03FiGly4SCNkYM9KNjlcQxbzXhbwu//AnuNv7XAwev3vTXsGfuvl9c70x4dbtLewYSfl4hkWkfjMvViMcutCiWTwGPQTX42mtsQnJRr10uGFOf1W1c+41Sq9VnnyX09iVFEzdA9wZjm4gbAXszJ7T4/0rZlOGq89wkgZVIS9FUnS7c045xklUjvpcfUIh6fLY5+6ls8+HYOFMz9VVn6V8ItmBTwnU/BRdVzBBm9hNMx5/w9nEs8ETFvUZKlkLJ8lSTk65MwTGcg7Cq3VxzNXiGvBH8/u01OYVCHvzYW2f/mF9bSyvJtO3LUhSNVJlm8tgC69kUSz2NyTKy5tvG11/J0ZLDoLBVizusNj6y2Vdt09G0ev32mXrrLcu6itNa0et2+Kmz6GBiLmgZ3Z2d0nsBHrG4ii/8Ty0FT2fFkCS54bwWZ6yETZLPC4Zm8lqCF9zv4TTwQu0Zxxm30rbc32WV0XaGs6ZBBcn7UspCcpq8p16fOvBP7o615+B+eHAkE23wWniK3WiOasX1LJI+fUp9hm8YJs85iCaTDNxRzoo/ntiC+2907+0RZi8/sdPLIGThpg22+tI96/pd84O11NzKulqdb36TXcryjyRsPLpcHmMsTBafBYrZ2WOqKVytAFvsr8SBdtgcRfIZdC8uDXMssR9o2CsaessiEq4QcaqW3Zmf2OOn5o0es9Vu8qh+oBtuJHTmf41ZnyfOr5d4PzGZzwHFXroS7jENet39jPYOPjuvWpKlS4SrBw4BIuyA3Z3rvBv2ZxGs4Ta8yVuRouP9fT4oIHNI9BvFalCpwHU/yxNEjZhmtQMradG3CwaJTqJXXSqmo++CIa3uBYQ3w2qFHSLbwE0PEWec0q8SOJtnayH1CUyOJVK3C5bAmL93wLdc+7nD1elJw/tnVuM0v3bybdv7osZPywCQZBwvaio0H0q61jCZ/3SDJ42vMx0ipbkYoiZy8BLyxjj+H9QPOsvgrB0HBuXRtn4Nub3udDfBpB6E1dRTRYMtM/eGxvNcz2zw/c8RgQN+dELZ5HIjfbxbGdk5/eaH9oPpXtdZIQfzN/T5m9fd9/zNTglsh5RRP/EKBbkl+l5SKZgxixAJg1MTaN5XmUu74ODHMiB6pzVVQwI2Fn7xvHF3u8U+RxO4rqIKCmciHXwfWG7OfYsHFc56eq+qqZRYr2HPHw/H5V5BCf9XicCRkKcWciGujsZFGx/Z07RWqyOXXLNNjNHaLyJagmncdi7Ad9fjelg4C/91yT7GJYovPBygl3O5tB5dj/cgw0Es8TFXX+8EhPRP82kc2z2U8zktdZPWUWrOkbjKsKG21mxWT3sSbzVPM5qDHjuCu0XH+FQE+thcHOxxKaOuDjKne//UYngOrJc5p3kG9ijF9+vmsH8ecBOSPVAfZh8ZLgsrY9VAz3T26HGr2G1z9unmgL6OlGjpxSK9WreEhUnKAR9YHN+G/j83Phvu+Pbnkuztb0XWmZ2hijjV3pFva/XecRjq4VFSWkr6IKxfnwkc0K00CGq2f0MaYGdOI/s11deDuRlj+WkPA1E6PNID7D6/MVl2qX4OF9dyJ25fcezhsn/uBjRHlicZ91LQ10KDQgszO5/UwHFOqy0xUx3r81U3XJBKXPM6X0S+sI1LuLyYZM3Mv7/wLL2CX0RIrCZ/g7XdySsCuoGhXty8h+dupqG/hz17BNgRz9tSxp8Wp5DL0PkoLhE2jfYXjIp0qvdZai8p/HyUJfvxzzFDK42aw+xn5CvpUy32MF0cv74Gij8P1sjltOIhPXw6ngR2o59tkV5ehHW5XpbCVNtR1p/qymzVFJfcvg3tt0z/g9cSvxpVc7r5o/AZIeQ0ce925Y/vwJODxoV7XPhctR069l3JTk1Lqfd1LxPUcPZXXS7+qqwmNP2RetEdm71Fx3+FB23lp+orROqLYPjGOWBVcpoQfP5bCIcfEtFh83s9t4WkKu7KT9VjMqXgT6D38T6IIVZnts9meLFO9fmEbqZ4Md5jfQ9HyzrC/VEnIyok0PvOlITls3zz7b8+8Y49VYQODN2ctMvEqE0LlaiYy2seBs8a9OtOw5weBG7ZYtt5DkCtmJhpf7NVjc5gPvIuZuKnKlT8YKYc9VXTqUsgeqWQfiio9jdP3+Ma753307+XI06pfp5hQrATjJTEHi/v03d431496M0nyKJdS3y3xvlGvTocE0ZRakZh6PuRMkV+7z/v+fSVsvf4wUCXtkA5Dz82zxsRrhPBnWOTe66+jIS0EYBxw6hF4FWT40fqLCMEKRdf0+HxdeXIyxPwSUI2x5OrXCzhhkcMFfvdB5fANSgt6j7Uh46bw1Pkfdmd+hQAb9HHxh5x2IdJl4jr3LOQ1pq6VHiUhIjMuXV6afUeps2/nxs+yYO7unx7Ma8+fhsaypvU48jtTX26NxlkPPHfq1art86/i+0ZYFHOAhGOvcPIqb1onLZpK+l9xMXGPdi3VwMs5FQejKQ3y4C9pYRjAmWln6KNQNM9y78qlqLx6HIMCy6uA79cKiv8z0yUedUPyp7cHaaLJ8LU+TCmlxJlaOBowJ4Ic3zVpruXHf/WJWmClE2huvRa7HzyINLqYCQ1Yn5+QIrOH0DzdFUPsM6ayDzkQvElv/rk97WM7lM1l74Z05AehWosOoivwR+5RDwjl8rK+Dn2v0CIWGtrQkqjWtrMyvIqXgow8hw96NqVclz6+MnuotpEvl8XmdL/1y3d4jV9INkHUMIvFeX+u/I1p8cWRGKzRJNERcIrkvliCpGKcvfPsdZ4OkhLD4YAGbvKHL0j/XniqXF1OPf/iGYhq1lgHF6Pkw+ydT+av17ZyMSFfhSKuG3S+FzY8hX+dNgYOFQlKUaDV79XeYHuPz9TtNZ0SSY4dxpIrpk1v1YY0cM2l8ouxhj97FpFnJuqaCCFC96xK3/CJr7TtbMvnbqEmkY1bjwYYrESVXpf1d1ETyEPV6XB5C0NWxaSF90gYJqoZxhTqkpWeLnm4Tr8nHoDoQko09pEq7yA8T3Fk/Zb5k/7Y3VqGzmDlrgXzNao2qOFri0R4S6jJQCagUKnn/iqFkZVT6uprzT1hk0ofj1XypdeY4MK5n5rU4RIo9g/y3Dun2iHupo96bfMvydTFA/RhdkB2rEM1atKrTQ0ZJMSxkmI7cvMv7if79YUaGhnAvyrZvamNR1kDQPUejkb2p3HtW10J2JdVZh9lsg52tvoa3HT2VL6FIXavE68y26iunVet2S0/wvzo42QY2MnUrbLZNeJBQXxLSkL/5zK017mlCB7q1WO80J39z8W7A0G+qLM+gcx8LFvhhbyREolDoR7Dw6gYE/aVxK6o/HKEhI2IOqyvS8kiXNTlFt8lhMvtIeTqv3z9eE/UI2pBU8N4Irdtgvcw4a5KLa99KqRomkgtMvV07ho5r7R9iq57vUeji5JpRX0DHrvjSaq8VRTKTfSZicjjrIeUnqqQbrC4nXnmsVH0jSk2v8Qg9tDzQxTnBg+3PrYC63HWCvjOzeKQSgMOaERdFg2QeCnYWsdeDHKVzQv7IMBBGXFLx7QvyP8Fn/+Jk/zlObi2RJFzKP2ZdtiGQxKXRpPNX0eYTHXbjvMyZux+Et7cPw5eacym02VRZCLuCRiOBraK0fJmmhWnbq5Pf9ZzPyuQzQGF+wfBiPcHaO3K/8++WzWyncs9Azyr+FQhHArQKDN3/tBfijlg3ZUDmLc6johH3ZrQ8SbCVWuofTRsRk0ATbjnlMQ4vYEeildZC2JpxNQcj2tmgQOCNf54MD4a7b0Zc3F69wpu8ai6dvVkUasGpqzaKMoRE1ORMdSkqmrl67CBxjnXXzDaSWTKOrkpxrygjpXVjKyOUZllJk3iIzScSM+TrVhirh7tpbuDnYiAuT4OjJNZ38+VVaqDg1FBsPDM3jYnJuHHswg4KhEqOqJyusVEUcvlkgQmc6DhEHSmVnd02mO7VQCxbM2+lEk0EOS5R9ZEdNUWuFSzclyucOtfJMvKSzyNEPeu8Susq10oPmOJtBGiQs+/PSnPpXfA/wh8c0Z6FWR0Z5VreYklavVddee8Uk1unQ33tlzPqL352YBsAhQ02rCXyDUNIigIgvP8gnoCNPl6mh0Pb4Bvl1PBzcy292fLNn+ns0bEAr2xwSA5wwJk7UU9FJZa/u2NJ6+yJS02Fs1pvDMjtcpVeEWnfRAfbdogqCFm+9j3myY+iNte02h5n70/+wB0yehI7NvxUBoe+cghr8wBjCdNpyt3Y7trRt+dTqzc39Kb8XvYqNAhEyej17tuBXDAs4gTMPSbkkU/9hCC8TPkRA6RhSQ38JPrmS0GDWcIeI4hiD7Ens9BD2JK2yrR3nUGDFPWHU36Wf+H6iUGaFuyZQ0eSEcQUz9RECe0xhsAcFehDENsHYe3TJ+u3k3PHk3GPjqN8fpzi4lS4hhVs31CPFEfNiBbEq0CJqopRZhf1X1GT+kC75PlrNv8+QxrI26/hUm7DEYIwKh6vwqUZFoyMGWSBBLlDJsShuEj9C/c247lc/RvDhRWeDUXvaG+rWqeTu2JcMvfF6Pxosje9qTSf+Qubl8KM4uQhb95eIr7NB3zlycS2KfsZIkZcL1yRIn4lEMABBgWcERE0+m3KNkV8O8k1CLscBghIIf4esRkXjkNEYJDz/yWt9UWFYxRwuxLXd+aTZrd5oprQKDrL1eBHYmfAdwOcun18IK5eCIdrU7MdrdKsghRw84LFHCTBc43+RLX9Iv/P2jiz4Lflj3gyeFkJRAtwQhVaDG7lyTSMMgJyBIyrz8UVpS6hKAAAJTf7m5bJBzWeLHR2s5eXBmbllSvo0rvi/Tiefxs3UdG4QKviud3g9eDUoBWQAAlBFkAdBjGZ/b3HMovWV79aW3MxNnXxwzlbgL9z4sa87PDUz4oYKEjXv+NcKXZcCT/B9B6iWny3YwPXCaz2PY7qIUT7EDsxCw0UxU4XeDPsYeu7Y93ltmL3AwLzgzULJ/AOmbKp4mt86zucTOUb3Eie6TpXbN6PvSha9chcnIZjaLXMCB8YSH3O7jI9R04x8OldYo6jgB6YeE/99lcIS7yXsZb2/FRhNdwIh8cA4q30sJydOZ+hOxHQHgTvGlk4FKZ0KQhj8QuvIEDk1s7oN63cWcvj3s5o11OvY77IEL9EewimXUit+Xn0JxfProA/fTW15EjSseAn/GhfX7+lG39XaCTwCP6uXz63Jy8txGe1SSENjfqRqG88QmPAB1kwAGIAM1XPMs+w2c1+jiloYJKFEl3jImGVktB9R3sZM9fb5tho7gmt0lbZB9D+BpGOGEkErRZ5NWlYfu0QEBIFd0DDxsZj2/2lRTLjbj21zWsDsw5zGeplc1A1+8vvSrNaUhwacEsjWWgZZZ8xRwxqD+++Z9PLWeFCg90YzJu/h6hWKP+UVzwf6m27XuJEKktHitVuV+hVR9xe6az7Ab1RWoXduSsHNBAzHT3/+9CImdK2ZEjmxjPwIUz5q4GB+hGHVtmZIVbgC1K+HsbpN46Ca5r9p/1fIv1m2vpPde2yTtQjSxAEMAEHCClsm9oz8GQLCZfKYxZNeqXytzguX+NzY+e8cpzK+ukp7U8D21DI0P5GI/55oN9X59IQPaAa8GuRYGkwpZgxNnJ9E5Ne93m0kGEtF2SWf0PfC7DsK5p/o9hAAy3BLwVDoO+4baOa6TlZGSWfXUGpTl96OpSjguTP5onIn/els7XEzyG0D8toeujM+6KvynxtvcGnZ2RMGDAAY3bsDsuUuw6NTNzjbM7LNr66ba+UHhiP/l8tcZpPqjYck+PRTxnyg+Yh5r0kjPJJooJ34w2zyhi09hPT7dBoJnQIXPqhAzD/StYUWjgBsP248+AItes9kw05CfQbyXG1Oro2Dq160JBvO5WmfOj5FvRJyFiTbgq8MiYZQHeM1dHmi5WSoJpwqXUxQ6Jk4U2Klu4gQ6euGlwdqi6hIgTNLRu+3w1r8u11cYsMmVu44pBHrOYoBLvnPBueQKr/gWK9IsHci+XfFozBYuIFqguS7CBv6GiXgIgRQwe2nTO4D2xR1tNLqAmnjl04Dy7K2SrqH/sQ+VINYN/r1iwAwup4sMc4VUXbSXhpyyOH9xbJD3wmTOzADZUk4S+Xtfh97BJ0Pwr11yQPgoHz8Ddbm8CtVknNm9jJBGUPbDArdhQa7CktUXFE6n/cnYxGkzH/KMZvy7rX1CTkqhKDp138X3ZqS9eXuAxDpqiaNrsu9b4q5Zu1VFdmJYnDTuY9N9KN1g+EB85AXgunyH3Udxeshnk8mh8YdjQuFF1TA4Yt2pDWHB+2Cgg05QA6zDiYqRs7oMh2+yOq/M+K/gBQBYgrCmE1rwu7FKtg1xUgbkPkmO4DdzFe1yXshufucbd5K0OdtjYiAoC+CYfezb6EkSUQGMVJt/ZcXHWQJndisvJ5n7v759RcUvJ9hID2AkcHgiR6XBq6ehaIltqstqhcB7r13xHOOXPl/MFKK4obhkBIPGkg0HBx2GGTghYQZbwHzQfqld7d8OOSI96XCPJhQXrQ2pZAQ6fwUYAAH3j9AAcAFABABx5E9J74Ak9htZ5gtuWi6M6AM7iSEIQhCEIQhCEiVAA7uW8fixB2pBhGXF7Vm2P16pngp7tW+wXyT8z6u1mE7hhkzdAiDah/vr9Doicd44zwoOQL1hAVkX9JUu/lEJs+YmPls18IDNFFRaEUXBRtfxfEQF57xfR43yVaFP/fdpVJlDQU5PAEEM5aNkxp2VZCT8DMEY4liS5tCA5A2izE6jz6BP10+P5S4ef+SN3I9uliNBGhgSl/78oY0SweyCDm7jqlWUPQTqKsDWmJA3rIQpXXNnB2i05wflovetPmZemnyGBs13LTFAcQw1DQfC4iykru0g/vgi9jyBHCJEl4d/55D2usbkECWAYDrdQNSLHpZjHuNFBjry+lRgM+zU+BKtCtkN5arIYkb1YCUQlzNsMo3IZNdzmgwOhL5bu5PyMlOZkdJo5e1cV0RwIPKL/Hyc/kX1dyv1VZMgTEOYxGSVyK0p3zD6/QFiwbQn5+9yrNeyRSobVEEpVpUE3ysYBlBenyeyP5pxK4kAJooLwlfma4nzw9VsO6g3HZyEmaemOTAIYrsqROu5eBY0IAALwdhYGwiTMJ7QyFvPTEGEgCG+0WSOKJynf9ybnkMcPJLK8PGksIOFCDabqhB51nCCN4HRuJTWD3EFtS1c5hV6q0homKQD9rxFM6L28jmE42En6KPRBBrkP+3Jv0mqjS1+PaYhPDrFBSNC9XforLQxeKDVc5ghVEOSchMEj4fPgKNZXz9/W3+p987L4LTUG3Uh8qQF5QANnHO/n3xEABF8VAHc6wALa3v5tcMZhWcpm+HhhjKy3cLAaeefpz/2nnDxJZrzeuOcq9xZS8lDfSxk5ceiz5BIMta+y8kXzlL6e26nv5OHk/E4H8RoetTicbhIPbcYQCg1X5q4Xi07bqpil/8cZQ0SVXunZAQ2ROxLfn4l8mUfVpPmVThqmwEQACJMqJjVe7N0lnzbq15npXTS1zPFbjKt2r75Y+8QlnfYy66/AJAD/nVAB4FYuOAqAJvJ5lfueKrTu3C/7lZzNeLtebhPeZdPBR3OI87TZs95GXBH9+j0Q/8eB/eA1jea5ExbhqrGmxjtsJZqwGtZrU2s26Efj/3Ejc48AC9UHUPxV9azic0GKKajBOMo8Bq08rK53UIxIMBQeS3QZjiFR6m6tufQosLVmg5mKQdhviBgN4hFRj4Kpt/5u6XEY227RbhfBD1vmaW/7/tWJWE4EgMFqdjdQkLa/K3YARmjAE9DSRgAn+cfs/MLcn+AbJ5X/VvqjL/9XmusWj+VSz/wBDrBtuHXAhggPAJ4Eid/eT35Rpj7Do66xnZqDDO03HcXQ4Rq0XUkPHdMAduAEgs4i6B0q0bjfwa3YQdBLeaDfUZbSfZ+flbeJQrj+DPhBaGtl+XC/6mPSkBdXJsQ+l8xGD5P1qMvj+vXNs1bSxAA0oAiCkNacWB1G2RADh0ALrmLykAehAHzr9y6XRjzBw1u/bvwVtbyLGZWyzOb4WnhLOm0Yo+UvrmXIZJfZhDOn9waYP5VTksD0U/URk8/X2u/fyVXHoYF9ZPWoMKE5r+3lqAJARmmj1udW0a5bvvaXy7jrXFXAp/CwyU3i9fqMOrvcK8ZrxrotEk65EqLXJAe7bfVCGPY6eJMx+Qg66ryvpEbQgCGRe/rq2no1YX9G4cdY6JT4oVIAZ4BbWejLgBtCt4/jL3qUrHq7NmXbLS9bllxp5hX9SPKO+SvCmaP/eS7ZvtubmbNR0Sl4AAsPb/loqN7gdjsCpJLqkAUhWZL6R/ZiFIoCTVM6bA9jn9dKsD8dy/wQAylVZvdvs0FZLPG8NPeLtXjao0wAAGVIgAWjAZTb6eCYmZd6jpJv9XYWEtUUt+2iDMtU5n68JyERc6LZYJUSo0+TYkJAwKQWXrJiog1KA1GBQHJH1QA4oEJFgTfq1mcAC2KSANrQBQYdygAUJdzblkxRljsT1a6obbNIouMCqWOZqDhVTWhx0pNEZqo+zgf3YmFTE9jrw2u+7WmTNPnZlkje1poHqqFwyP76wbEh4tF+6wA9GV5zOYYai80epX/nAuLHMEW1sLMG9a3pmGXfk94Q/0FY6qZWWPBQgz4djqT72Y6X7dZ0uQhBHKFgXx/kiSVKA1CDjhXECCVXRsJNU3o3ayfS/dPxkyWmWiODL9Y/cdTEHyVVm9l2y9waoDXB5SvNRTTofD4pFgQIkm17gAJGUiAB788AGic59GQACAB9CzrM2cMz6bY9HSy5lRaS4fW0VND9PHUusWYjElbPS4CDK5Rtu914YAfrOKK592VcueGPt85zuzO821fVd62B9GfZj3aNoYhOp4eaeAkH2PdUhk613bjYLeK3XNYCh4GZ22VVEM/sM8qWAflDB8BjYnHc7IdXVV3io95lF2eZS3AhcKgAQwAUyT6YAbAAECL2AE9w7LVFOxA5df7E7Po8Wc6Uoa1iJFBOKlt9UhUSXpJcWJPhQ19+WJFmZmKlCSH+tNvnPCMUDPHN28i3Tu6QBcWADaJIDZIAFnCQ4utUSSCXTACYAVb/7IsjWpfbG2T4s/IKWFE3Yilg/H5PHeIsL2jep4PKPAqgVFgWscQKgtYFZu0tJP9Brk1c92pF9AHwU+JzYAtgAWI6cn37fHbnQQnW703hPzrsZH0Uunm87CWEMJB3zHR1QBmO9hABiQA/XoAIAF/yhNo9BSkMYxiFLeUwAnkABewAwABkAAMSADcaFhLgBPQAyZFirdYeuKCzqhSOD7k60LCpkWqHU1KCgifCKVM9edYCIQVZaVDnKCIIQ+5PrMNX7NXxdWA0l4Z5TxTJDLGltK+NmprwUFTJA5It4uJ4VD+azE4xDWcvAJ/mcKoSBVKoRQEhrq74/wAj0DBuhYC1cAnAf+TPjW8qkCe9z9w/d4by99nmY2k0fL3FsXZio7eJucktSr8tl6BY5Q26HPsh++Svgo0jNMZixwaj24LMQEgFxAkPNrffdIqecAD/UAAIAAAz566076inFCqsYj2y4syTzJRgxTnGJM13A1fn2kq1xJ4Guj/qNN7zUQYh0plIz8qLBXe0ov7PhRp8qvTuTLa/97NDD9JYC+8EhjMl3rNBJ/AANMkBJAB9dgBsBfkwAw/BvBuqwr6S3t+DttVpL1nP5si6hKyF3mtZbmlrWNFB/hM/ss2vTWKk73k5W5lpfM1lbb/q7HS3W77jWTbOpKJADmKLnXh4zUyB1uZAGEAGbwAAIAEBIfBGAC3AC3ACn9iJmcLJact75u3AEpKAAlyU9ldgmhDb5O5fJXh8+p7lHFIanleA87mprp5Tn2H49A1feEXL0RgAD09zU2F8AALZy632vyXsw1Mx3zZ5IZNeZ8Uq8GejABJKUngA9rli0ijgpv8n7Qg+47nZyXcWqcxvUWk2BflPUWRlWa5x9+E/z5ndcnSSHJQfoFx8EAGwJs4zDnXvjbhWEP2Um5XJUadkGg/6lPAAGOKoERCHjndnLtxJoUXaHW/u6QfRtaH5ebA507YeJW0euTRDZVBD4gvsinX4qyUTpoJNYy06sWRznOvetN47aovkV9K5swBGYiybzyRd4mtzYVFqjNnjgb+F/LFPzGBbZzw70RI/evNIBfBgzP8WE967HVSUQzscMuByx0EIG8CxF6oUV+MrAMAUi/++0CAWe6OsLTAyndPhCfAzZOtfrAHpHGrk6TagwixC2Z8eGPQy3O8ebgm/cw285KJtNEHIgACVms194Ragtg+PuVEtgJI+IyheCUEjaw+/ZqJEQQjzmKA/gxN4/hYsYUOQ1+Z0+73LSsXa5fJkYZazOwAYcNxkVKkg8eEXfldByWSfUz5HgpqBBNP0y/JiUkW63K65l49lYvYFycytlvPQ4tQMTUuYL4OB8lZ3bzmTEcBTmQ6U2ssHgZDbykJOkhBgGBiKr116L+ufSbz6qrCik489sJd9grvwUGRLywl0DA1NerbmeskW8IDtXjKVAYmhpeBrnkRKhDn/jYsAeFgv+NPDEP9xJd8WJr/zTRUliOnuoCD4i+UhWC274FZPK6zR5TH2driLXNrAViOubOACTAAvgvGb+mJ2nhb7p3jjQZs4WhZuGVhvdVErYrM3nB2fa4G+wB5x5jwpS+orgjbLH30aO+ewNySB/e+U0vyONmk6Jk1MCvhFgLEHunoObtp0pPn4LTfKQzDYWqcZAZDlAp+p093fR5gpcGVENEBQAfNtQrws5eAkj5OxzT7diH7BdzEglCzvuQTeyFGoM2bjEWj6thwj5eB+NR0at0PbrZjTW/7coxa+bSm5jHRGLLO9geylqdgAAKyuSSLjN4UNhNPMUSngNJb22njG0bxELfx42aW8u0Q8t+8PnaDqYti2HraQhNxZSksf2JDX+f7LcHLwsta1eC/+PTmcP9XEg4qNuc8NyULxQDqvTfRIUk5QrkjDj8FrlVWjzSTPrsUN1DTFE20CVp6XuNSbFf4m9hEVVB3SP90viSX7RUhzWuYh0bvwvRUDH4xTzrdJ9kio7aG12mSskrqOsWtqQgyWsKwta/wZbBICdN5P/0QznNr3NJYU6Q99eBaY79yiHvOyMHJHhMq/y8fQ/cmrTEki49dQ9C7YPHR2Xz/7RPfTq+7KYjTsk024iyGrAlNBNM6ZKzZW3Q2f/axWNHfWyOPaywvfjDPAJAd0MLCq0sEAKTNiwzNg5CGA9mh3fu9v/kn068tHaje5/NIjc6Q68ttDsO765y7SkydG6eNRMSQVMFdAnPx6IUJCXSnWpICSLSVKwxO1Zs360EC7O6hSJr1viKtD2HycEKIEyCJa/7CQIV77CiuhYzvtyypiATmNY9NGrWph/Nw6bP37MT+oK4NjyyGXd/yGiC/7LEF80EnDwwWPo+nEe2Q918F+WPv0tNv6S64G++pUOsveu22IjzsagoAuDLAZ4R/nPplrH5j+HLKGjqhAzyQ0H/0XEESb6+KS9/+L+76P5xt4w8R1cNpKW4bFm+EG0bZmRKdAgjD7L+8HbUR5CMOK29n0sv51EKNlYH7Vc8x4S/iIhz7oqMgLG4BCBCBGK7b0hHxhIgE5j99p3yUOua7MoLvMqayxgqnnJPD0rtSUt4o8Yu3W85e6szfFgRWnpSI9CSMIAnZkbzGqBviJa96yXvX326i4qW0ETqrXr5D0Uo2VxCL3IKqBZKSlyNlVBTK1yf6h19Ol41ohOgFXy1EaCWCNPJelvmJ/u0k4NYmRiGAYYRCLaGCUBzHbgi84/i3ybX3Mp+tdGfXD+bcu225qnANFQA8e8xOhOe01/uT5dInL9vMPNvcdqjY5BfRYegyP/oqfc9F5pl34uFUKEtFcDhhOcK7gtz6mzZz1AJyGm9FV/sQs8HW3hPhynW/RJQBJ5NODhlyQFr12v4TnuCgEdIVHxBOpNuJEagnCYAwZKx+HsBb8v3K3pslAeowxgfwxcjNluXzIkfp+MgAAAStK+lKZiIRPpvXefThVvNTtwze/8TZXIqd0GhrCIAg2xrAvHxoE7mHItvd0NlXSKGJWkOu0weBYkf5BAQ5I1YOWhFzejQiwA4IoBhRIUv0mVe1ONPwVkHmOu2w1HRLCK8j9teQdqT985TMvpsPyiVbdPa9v0jpIsWTMvMt+XJnh5bKbBdP7/NOpVHXuafbXnF4SNZtFAvUjiXYQAoLEdCU5baHc+5MP+YXKcjawEDKXoqzIexjY5jwJMTYUmqtvlpIFNsZAZgjnGwQ0vOWO/SCkQWMaxuuBXqKu4q0lYVqcgkwAaLuMDeLWVwTTYQ9qvnhb9/JkPATA8e7bOJkex93K0GsrMAru9bCxsCVWIDZJpxTKA4dmkvq9/49Tg+vSWWEsev1NwdhCzezoq5/ZiRdOP7SfvgCALrKIAqSChYovPh1oTQesoLMCq7mCn+xFK+xMhTlJvdiKfuP3TAVKAQrQUBtVxEm1KBMVda4LSjOs6j9aLPbnpZjKS1T+ajTraqjuu/mj9fcDLjpeq2uLF3gHBxdBUZvAZnwAP4SwhEgRBp/WOJAtg8KmpUc+eZxPx4yW1+2jBB5TYK07eJcMCrUCVL4IIwjkZTaVfGvEzuiC8xmMOkDpPdSJrr/fgnR+ujyLQ39ORA80e2vE9balQ3gL6y9RN0i7NcRQxwJkrokh2X9lv7+RCSbDj25v3rE6XqvzIfK9f6jptNyxqN17Pjxys24uOw81rbxexUpln2chrSfoMTJBPoAjEToUKMZJK9eGRekPDWahS6DUxx/t6KpPiudZndttx5n6d43Pw+WcJdBIOHYkP+ZiaHGjAKBnjFRMkH9B+kcoH9n4RWQto3HvSdJg3abxqRkGL0rFLMzDA1CBvS4q0d8nJwWl02d7o3/IqFKzElLNd8vY6KVb0tBxdOzJIKF4xLP0zHFSSRV692dMMwRPl1eFKhN/5+4he/pBSdnx9a8pXVc6OQxZubLQdj+s+ffW5aYb0g/d+oTfJYbrj33EJwxAHRauc2vs9MgoP71/Nxz6jEu2jOjPoaxIBSqKSbt27HsEppnlQDSavvuqdWUVD5EBz2KOZRTBDY5X1OBoamoZuS+ahJKiP+rfJLihN7dT+yofZJ9YC9sGHN+nPEAsAUqOStc5x6IoD505Vek0zjFI1fUDHM4MXUNplyOKLTyRa4VcpNEO43cSQlujaiyz1Cja364MGUuQ1BHfgeXCkIAasIJTar8XSd8tAcFuNfzNbhLuv8exxJ2PFbc5PPmCTiCElUy5PXvEJ+YfF/DpEh9WRuPRb+jSBvsvMbd/Ociucz4YvpjtvHN6X4ca0jY5S4HkPVJ06OE7VLJNTnx3eZ1jQEagi9DaNbArkI4caAA8CXyPpec3j+YUJ5VT5NRRKMnR8VRtG8vsjnMCZcMO7IEtDZ934zWiW5BA2mMPusYVhc9/qJ+hVQwWW4jtrmCZEh4fH3YM0/hVM5V4pNrK3TuRwjA2+CCSsYICuMfslYJFbIS+zNV4knAtMUjqffwICol/nTMCKAbjO0kgJFUl0oIwPx49y+ii7h8iLJHTeXy3u7e9b7uRpFBOq6kvigF+xkJS5FYQ7Ps4EgB5PrtVDzrLw/IR/Pq8phd5v8yDcSMyuR2fcef1djtRALpE6gujUgDGorcTzisJr3CvIL5JTqY71dGoXVPZtDs7OuRIRvBr8BiMAHd2kBBAjWAf4TBcRNFHhATgIFHR5HWURNfku101Ql1QpfW2E1ENAaZYIMKWDgc4SlR3g2oD6rtzzGe72CYYK1ru6OFVSqEDKXmkL4EYaN2zop08JXE1T4vAAWG28n2tTjk9eQo+DKHkU+h7BcKtxuP5TopC3B6G13Nn9ZMLC8EhY99+ItetVRrvDomGXJwmAriGrSmfkggig7+Ung7kd6U0TBKVCcTORtbe6pffK3G7qL7k69bnuNLFO4y7SmOmHNPweoAM9Ajwo+uCgaYoKSFgOqhh4Crn/7ObdK5YDu2ctd6yiWqgutCMA8kjXLtpMiiLoUOWinYcUEUIEfXIfzpLXJYe38n+/KCcvv29wVJq3NRIbuCWdZAYrI1aogdy3W6FCS3aVnZZaqFf+W0mfOZ2v8cCSEnDvWEIJhA4OiE6DrTq96qI+uu56C1+hjmGw3N52XNmMgBrbOIoqqI88cSYSAAs1eoTc09Pg3ZF5UdY86doulz0UbaJh2dNNXoJj6vn79VV1OJRQn1nsSPhM/f/NPSCvC2HRqQEYJsPXCXHrCHYt1PHxnAD+eC5KOVG4qt20H2c5eKQ/CNajHMi3IwBZgnjEsqkYujFX9rDAOsVhr9i7uJ/YbfiQk1wfWVXs5l4JPBrdMJhgYvP0+Fo0xgOAk9CWf4n+ZS8999zmbSFHxiT1cGxJ6gVdSej3JIBAp76Ad6Iy6l7+V4T3Pxd9KZRc762MBtZFMAWtms/khFxl8CELtnYArhuwY2gFIDBGCJFbRUffl7ni6GrByqHDvDG3l//YzH2X76JguAyEKl6GHfSLyEAc6J4niGy0oMb3O03lsH40aQoNWOizQv3SkMsTULUkoCABTM+Uly60jei8r1ZMEEy6Y32pJAFYtlPABQP1TIuN3Eb/lnfU9SKj3TV+ORYcIZJRD7UNNIohQzhpGZEiwsu0CEBpLsJCJsawKGrzD4M9f0u4g8Qvtla07pqxOxN4XhejKZAx+ZZOCeI7y76UyshCdhVH7l1rrAwnd0+A2Vf7IzgVGmy1gKwpImkLcQf8eb+1ViJwgWaZX3hAD4H1LqO+GEF2QFU6zD2d7B1fGXnG6kddI0MQv9YYo8DssdxdLGolyeO53Coui52rd+jyO7tucs2jWFdsKQm0Pqp+UQe9qmNFYK1+ylxWhouClRVSQzrt0MMgoI0hIBzvzTchD90FPVuWNWbHT6Sjm/57i1x7Ji2qJWRXVTDuXxkDf3/hSSB5ainmla4qNsUaK2IQBCF31fQ/R02MT7uzjLxG7epqW95T0j3pTQgrjZ2P28tIwqR5JBPIEmaihGmHbcP81DTi9NY5OORqJtebQPqYMcpeDDxcRHRbHNok4cjhSY8/JfXZ2u/KGi3nq/wUJ+VhsBDUl5whqPPIh3otAtBCX9kGkRwqYrf73NcjV375Wc/t/pHX64JRKnC7AWgQxQU+BWdF0o2JY+zIMgAH9gqjtu0fi4K633DY6v+Ii3h81A707vNXgAAB5kxFJnF+Yx6GzyBF43boU6hn7CXwVJxZ/aAV9/3ppsPZBJpirwj3DmJYsvGgIEaUEIN9D4bp4T/GvvkTP8/kv6IGAbJht8BO1bRAO7U/sX+Bv0Iw3J4qLHXVUdd0tI1/Vzv8l9FscGP6BpyDz16YY6HRqFME1Kp44mGEymnRbyt1cZ0p8u4xNK5WkCzsoZDL0fCyax+j5FUGcDz+u+/rIz9tM/cu/TWPxvEDGA+TeNXFZZGhOWXZ0SiMWUavhvFfajv6D2/1nOvfMlH7qqgY7Qix5zbjOm5i0xQW6yheeSUgk/Gfy3Sv0ZJ72OdCvjpuirIlhymnD87KOq3zlfm1MNgnxVyUTD1UKfZ5yfKKtm+R0d2IJKFQUBy8uMtoVqqMB8EFT1q5RBdUEcpq52EDJGaSCsLiwWUdpdXvoo6+1J7qRu3uFJUfuC9YobXpl/CdNkcgxsbMg0G4oJ3FddFOM3MhQthedJwEo+SvFRscqcpODmJdUtsC4EpIYWKl8rOERgRzSFVfY6Do1ol+5RLbP0jHV3+8+XMT933GMkiooqSupRUotf465UH/4ruupteRcORv7HK+mbbeVl9uutbY5Gt/Jrt3s+u5Rr+4+ri3AvVZlIGg7t4VWdOKeeixXnC72hBYOXy98s4COEClmj9SKItjt12zLeIAzjbILrn9aCzjfWeTVYOmPNgodPLdDnu19UsQo4i0fTe32nRZKFFEorFHTuXbSx+M2bHu5VKlABBJ5oLLgeNTvH53XUQ9bckw+PKTV58q2aSIvF8CKnpBPLYVDxIOsyxR40AJ03FgGk1fl2937TgJXJZhSc+WgrbBtdH2K5HKRNOBAMCbgYxYRyJtoCNUQXutX0kOp1lFTp1K02L7S0ZKUQrBBmChX4lbQnlW/7c+K2VyjupfGbS2OiPbxuX3u51PYtXOudtA+zlhHAQRRQuCluL2o2KzmjvspON+V/TYnNkG/38TsYM7TsjFU+uTQ5ABAvjJ6xhFbLG4ggH3yG9+mt9q0U73ovlHDEF6cmb51KR1WGGKGf7NJCWJl2VgOpb1nHDae8TbbX4FAfle/FDb92lFxrkAY8poAwwXmWponi2JBdYnAPEbphNRSv5Rk9wS3/kYKWkQdJmUaukGQSRpQev+ENDXKeIeI5SaTHkNWF4/Kp7s6Uc8ocpwDJISqmzVb7WONoZ8ZtGcude9rDHR/C8hCIZYq+l7EEpWNdqqvX+le/CK5UA0LtvzQhstIFVD2Y0pLyytTvTb+fl8MaoCeIGBEMIh60I3TebFlil5XRyb+UHv2++OXwXSs/RbR3o5Ulx8lgmnxQN1j3Bob0WGjgMM+npxAECsrYzg01RGgc9txXjeGh8PpdlW6e3LFi7wFqiCinAxx73XIwC78NOaUFvOzz1xPrOpxAvdY/x5pmgsCkG0kJ0bgw3huQhpRSqmkkQIhWt7YenPbtTCtFV9krz8HubwZhDycHLda5pN90UzMJZa8CDAdr9qpwxax+WzzclZBkM4nH/zd/W3UsadfAELQpbyKQN9FLlt6R3sfEfVS8Ybn1vu8N5N8C7qs1jrqBLaQkQQqittw0cThynm9iL1yRvMf7wU5EF5HXUGtStsyaZJW52Wj5pgoT7fyD8JZUiqe2EIXpj8N2MU+RtNN7Xcy+QHpXQQy2QW24eQKsh94PMZ8YVAxn8ICunPSOb733nsOaiKakNbTV+esQq/I1NNrcTySekWinMfkcEkgQNwbFAUGvuQfD/kl87Mn8j1mTgBU4F3x3k0uzm4jWPvTEyT/905KtlJr+xWce3dLpbzL00f+xP5M6KVfT/9fUh1a8kgW2lckvcP5L2h49SzuawExeSafsDtc+0yk6FwnW48MOa4sWYukgXIIoZPNTD23MDlY6/s8orTZJK46sBKrN+L0Ychz5pxM+buNHGBttzqIJo71ktfYNXKMx+O7V1jJ/cy8WWzOqaLt1/Q47ed93p73HaFB4TXFDndN8PN/iW89wZqDnUnQoEAp0hyw+R8O8hJnnBYvEeh0PjXMshFlZNS18FGOKFTmZ98aRCS03NCo0m2I+kKkHGLkc0RQ7qNv7Vkam6ZcJpK+uxv996pZ7Og5Nhs9EzGL5dkMW8Wzh6TN80vHNzz6gT5LDnO5jdJE2ySaW0x8DzIXF8JqM8xqgTUMupaToLtcdie5+LD+XdsJf3Lenfb7sPXO8EGhey/O2TW9nH9AIEL9Hi0NB8aw28GQzD8PSmt9IR3M9EH6mJKz5ZCtjmGRfFmfQRkr2ujdhmvga7qJen0yzMrgK8xbwJLX4HJ2A9zLBv0vjHcY1L6kZxe9YvmpgddfZkfJwC9pIF+Qrc+q/jlopDX/FNCQZHmJXI1MZo5Ef3lG+So2VFRmo8r7HTg6Y+NRR+Z7XDAq+bMdcI8gRzz68+7keSoaOHCyky6GQeEIcBVpblO3P3ql+egJ2LL73/JfGk7gsj6LoOoXnlvHiaKefjpjEQDy3QWTqqocSJjawJD7+ESy8SK6xjvy1VA4zu4oJypVZFFOqTiSRKYgRqSRED3AM5T5b3GZaOmGZ2RdqgdoXXnvNr35eA/3dc3p/7tq+YeVr53V0hft5v0IQfaQN655Uei3/9duFx0E9k2Z37WGc8ZRTX8Cq2sttgu8/fb7GFv09eblrJAWskVr77678oPcb5rm1v9uDof/dLUCAaPlwXJsOZQLD/3JkG6E2p9UbElzqQSW8xGFGhiKVf7VaBfukbv/+EyXaenCjF3IGqJpqSo9lB2N3ZEt7yeJd5jx4V09V1XkLD8VeG8mFhuuyTCrEj9qddgu956E4z2nwk67SzFF7E5Um9lWzB/fjVMSO7B8n7Zy2cpBw4h5rZeEmyJRfgyDcqUvzuwa9SmIqFJostOpukwDnvIsBxpCL+CT0aN6zX1JpPo0a3r55VWnvuR/Hq00JqPEnTTkFL9uvj+pQ9Pod0NZTqU7+oO7qy9bWv1J60Q/E8nq8+pYUm7PJnxgviITqkb8sje/ydT/nAxAea4fVrQVX251tjaCKFjPZzI47GtHms4XpadKv3viNOL3QemZs4GXe4cwr3/Kmh1Lpcljt/X67yAvNzaXJJoVvEgLl2SwKbsjjMm37HIZ9W0TXy3ijq2I9sz7Zwg+7cLXp/nSmKqp80zKx+XteK+VWYGKzHvjdX5WW3IYFWveWfIYvrhoWrrIv1eI7h4+T/aPQMa/ydy07imm0W7mKeinG9oCuwspSGtaMaIq7hmfsZ/baILKtsjy0l0LpCHdziuXYvsdNPSajGkZL7pNObHfN1wqEgyJP7+ScNva+yPu1xRcn1foTSHOy3I8384a9bZhG9CghflgutoMWPxyds7q7w0tqG6+bE8Y52pe42WqpncMunAnDS22dtJpjUBquVb2sox8Km9XPU5QcNeYgKVxZl1ITPhi/TUznsUeV+bbu6eYjEfhDGljI6lvZdfsVOjs7Ez8Ih6lo1y32u3aP0wuQ7teLz6ExY8HhYTEl/Zcoonh6cQQ313ONQTBOrEXDxe7Z90BQnO+QCosfMU823Qlpi6RXn/Z21obAxUK92PRSLePfwKZs0SygTeEJwSKm252Af+stK9NLL8ARw1HKLx4wm4wuAhCemlUGj+PAbuV9KadTc7TVz8BcPNv4VmjuEn2miMUDEF+tpm4Pw8bihLapgcmqj0RbCMjn0SwoXqwPLHisf3qLGuGfLzyaKYi7eB7LHtuuh1c7wWWBusWpsNrM5jPYKpeaH9tJuJKzFMOFz4K3GtP7Pej+dlubTJnHgvU/7+dURPvc3iSdH5mq9AzphACl8RVLoVCkapeMWjDrHMiXJqrlQeKIcjnSa21f0FfQYW5BQVFW3J/CI43JkkSG+N5fNM5Wu1Z4bhMpLV9wssjivLUy4XsNpc6suyuOI8/fMxe6/z5SFBU+TMEHzeprtw897zK4Tj08g8xVkGzW/VT7FrQXvw3820wPZY3fXrWRDUXrW1UQt9rfM3QCV6sedz5G+5qelgeu6xRJVLirt1/PQgKZGt5qgaHi9KcwT0OKHhtTq7l+mg3M8kSur5erimecv8VucHia/uR7PJx1YUdeclh2I9qjbLMr3Q9xFyLtwZ8LqVQv85xd39yCDZoRMyjBPtiw/Pi0wFQSKWzHNp6vO8SHxMLI9/z+Oo0Z/hzBHCtdidrZb5LbxNIOzJMBv3K/b1ljr2qcNF7suoK0YaJ7kHzXmDm8JSrWEKfvni8vHg+qVBWcL+tTbNgK9tEtw0HdRrkkgDTiYVMXOQ1WapZZ8nAKKmQImn/VNpfoPcBB1I6XgCDdUuqwkRttT9AWPs4PLyY+Yh5HGm9GKQWjQIzfh6i8WrbzB3VS7YW941qv42j6p9BR2sc461fFsun68mu21hTZsjFWuqU/ljIaNdlcmbNOjWmzKiC8fQAfF2aUYItzV6njmvEmI4mk3/rx1L9y6kgokHCcP6nzyrh7NvfDMikHv5BhDnM2S3G1OJJu1Ho2krTyRdezYejqvcjf3mnfvg+LgcBdhk1I4S/n0TWm8xJpFXIxDYK24hbpR9D+zKz33zQsoPFRYqbOanNj0mNeLcvsjSMKzZLd8rfwzW/mu61Ntdxmw6M8r5LQQGSBetiet/JmL49HaTqYO6/VWZxYfND4sZHvu31xsK9Dsbwb6PXHs7rvUmA6YeXNCFHRpjz7AwAy01niC1JpY/hHJwEogVvEX/Ca6OQo/NkxkP+tLRipe6XN3C77NdDpwrzHWUTuc6rYcM5JzxVzKaqEX6nnouYKDDx2/tHroKyzY46f/35298UOLof732BMFJQh0IyBjv9MDPKy7q/ZS2Pl2+7SO3CVPPN9Ktc0iY7AVmrMSd98Cj+R81vr7EvGU3z8WT8hUb6cpjpFyfU+2SDXVolrspBhY/gjaDf7urfOK7OJs3Lsz7zTPnWsW9WhxrhGt+cjxCF9ikC6dSczPz3q/CyosBr3Uf0V6uS9cJk97M4mLjd5HwFL1v2Jpg/oHJssaCo74cqQvLnCdguOo0LF/ONMyHjnUVM+XdXSk0x+asnUk58tmhsX6d8TrJ+7ZmqvsZqzxpVU6xDIVKtwvh+6Go9dxcKqmic+uz0KyZSVLb4T+MIWefQbmvcdNrIY7J+X2/n0ONSD0qmnmkMY1bRfEOI5TZHl+cCYUKLSt/K0MkN8Pe5klmUKymHGiv6zKbmEmOWNxkFUK9Afru55GvD89Xs+i6YT+T7TVazGNHK+DPrdJFVxN9NflPmps9DwqHHSwCPkhd6dh8BjmeXBfn0Y33baNszXWh9sMEh2m6Qp0VIJtav2ipzZK90+zzu80sRLorv3lh6nuy/zvODgPiM99L2bnz0uFwPiMulqL6kP6YVTzamvjOinHend/iLBaPlrouBa4ZvMtyZhtiY7PXdwpv/N1Lm+XZtQ9wc5X9ItAsI4bRzitCbejafk0Gd8LAPBbmKutFpPuf6Cz8m7b1/23y9uTx9v27iq5X9zm9D7Jrq3Hkc+HoOGbUPiwzarRGMfHldqDhWXGpiKDtSfnoRE8TaLlIjsebAFpGjRpJ863BCVp9YKBD+6V2KC9ueK/Tgq1vClqFFtksR05JnKQUwBCW361OFSM81AOx9RyiSUvDvmewqrn+1Px/4YUdDUeLZLqrkaX8Rw9cp94SbPHeBP+fP+W5fHe0ot30h2+MuPZvdXk92JT3e3Ad532uplpNzf4zmniMKjd/JRwKsWq2TP0spuWYlA2JFaSrTMaqSHJ/8GDeaaDxyALJDxLWzgIacgiIZ27yAE0sfPPg7kM94GM6LMvZK0PJqv5fuGa66ZK9Zy05HZnPULRh5wrIKi53YSyewhurteD4DSY++7cKI1PDZZMQnxYByiFrxzdi9PFlIs2S0ZASSKZfSPJ0KRp+zyUc3D3mzMvmPS6zv6TVr8zVvfjIM6TPV5bpcN2bWElr2j0WjgbPGPB8aC90jrIj4gPzSov6IT0jpvcgvKBcufU1ordGuR3jWp823zxRG4Tbc8R7W7PyL7HRkKDNpFwY/7HTUGiT1Pm8lYliVP7LVhR8w41ZGPfdQ1ZQ6+7N4yQH95OQVcSb+HmRp/iHKT0LfSs8DjOJZYKTcHtq4aqmAHaApYxtqZE0poYGeYQfAJyDWs27ESXDgZNHjiR1Ong+PMfaXn4/71Bxph87az87wXT681RBaciWgYxiX12mTqgH4SdWvlZN5M1saKvRDR67v8F5ZqLqvDKHcWCcanFNFkbCeuJPJWoZKkfm77IqRdUZhxwaVatH8SUhMIqwWQ4a/gp2KVgmq0sinEcQmyf4UJMoBdS1H36SdpmmPEPAJQdCAhhYxj5j16iw70Lz2mVLa/5Rb4tzcPjmhKOlWyJmrIhd+5RGC0PDODyKERTAxnyqoNxpVhKjYojkHTEVBIjnQhF8yw3cTxNa0fnnm5099I3/Z5DEDYqXLkOfpiNpB/cSSvKgl2uvmO7Qixi5GgUKN9SOx6q1jJ400cuNcIfLLaBkFDvTtDWXAaoMUtxvu4NdogyHRE30TqJtr/3v6B7gouDCgnFdDHCFKOX8vOn+FspbHSkt7Di2CigsjaXM4eURID4IF9nNdq9nbOB+PnumQeEyJzdC+oGxokpFede8cBqOUVLLymA8Kpkqpjm37tJ3e2FFWF52HfBe/Ug5tei8mUYQNwNbZroQqyNk5Am2RLF/gkMmQ0yZ7uQvO/jlZjdjvpDjUjsTGIEfJk9bmZ7aGCQLXtsMD+Uc570t2anC5j2R94/xo197ptjePtlvB1CGb1x8R5UzC+VpaYgyE3Z24nuq08ZhKz7iHJ9WY8e/tLRNSHavCR8M6Tdl8YYTlgjvM+EaVhUoB/tKNQ/Dg/lWYnqFpHUb7IJ21YAUz2zzflaCf6cUBXpvFcb2Iy9FIK0b+E+OjRxjot/qyawP6k6JOiMCMEE4SgwHMUWdZi9Yu8S5QiTvgU9VKh2wMQpnuZuf8wXsiQBIoI+c0RXdpMdnu/rGeUfmjbN02CnkHTYRM6Qo3ADBJkMvOgu95vp07QVqLjrNfXnLxy/c2Chs0pZW1C8JlQH6zaLv5BHfIqmRTh4G6LtNoPTnbndpRXeyLHvuaDZaD5E2j4V8igZyh2QvzHwBDAl9o3F158dN1Oik4WJ+Jh52rgwaGL+RrM9OdEEYJsFb+tvKeByutvc6XGLI9HW2kFPfCRxuOVKF0h6hNCVQcKxdZGUJmkggAfhfi0xGG3+6rGuiI8nVenK3+6qvosC/suGFVweYXBt8eVHtBQ0k6QuUbpH36u5r4my22Kd94NPYMHhYmED/uGKjoU4aa9JK7cqG5x1Xh6uJ2RhyO+H9LBsbACgLFf8xioa7Cv/QehRtfGYOu8JKSmGeSx2I+Z96IWPTgcG3gVvrqyteH5lCga2WG2b9EVezAdZGri/KS1jpp91l572puiEi8xovmLcVmRgIgHRiywfRhCDEU0lr0uA63ZiTJWRn60fIo1XKHPyBjJQ1FM5gYDh+1GWPj8TJF2Y9LeQ3xgP0WFx1D6n5nMDP3Q8yAt2BaxRmCAPRv2+TRG8fZjyWkUBAXVUUabWImbhq/3NJIco3uiEViy7wf1BwF2CBSutY6yq09cGDKXB7CaOHDf3sKMi4949UaEAeGxA7BBT77YLCCQvaHvCms75dmJ/lsxqvRwrrz7WZNTg1XA3h5C+cM2QsoHIjttZ2d/h1ToykB4KJ75YGmU/iuE3b/Jz/VMmCUtjP5XxRWsYA8Gb4nNgV7WWeSRZ7zKp3PfaSoAroe0CwiFgyf9haHAFHAKItACttji4vTW4elwjuDxGS3Ija5mJLXaIjBiooIAgfZCUXd2eJHCHq8gprnmve9yZfZadOyJkwccHHzEW1gRe0ciTa0ogKq6CTgmkOnqNwj0I4wAYYK5iRx1uvX7z2YjcEztBAFh4a6BpUC/S81JUkLUVnF81+rkvI2EAoOULAzfHJtZbZrE1/RokL0HRcqgtYeG2fCitvjfWkeoRPl0osURfaFbMaQPwv/fiMpLhNJyW04pQyJ7tPmQj/+LADzXUK7akGwA/zQHjaB2bds1fTVYb3Mcjm15Jq2KwMBOr/Vs+gyUMibqmmxqD0GoBQYIEToHldnTWWzmuOaJMpz8MTfiFgUqCcIcuGP6d1HSKkSOySasPws/FsqA7SujttZjzeNvx5wMr9fYYUjVuqmdKXTssrpVWye3ikJX/7WynXfAnGQ4YeH01rS69z9qHJp1yjU6s9BdVPAc1ktRH7InsazBlTBBSDcwL1xpNXVDthsx2N5qODty0PKuJ953YYVMxjNgMt9zkBuIKwIAgtbwMJN3GrGlKGWZz/YU0N3OsOT3VYGAYYbyD3cLZr8HO0zMFQGBDgmiWAx5Pq+L/d7+c7H9+Do7VKz+CesIDTreKZqDCMYEO2zjLrMoQUPCE6EY399bGWevyrv6L0wQUnsyUXQY0v55AOtVOyJoxYXewSLIKAdxExIlF2+xfoeiO3WeGxp36XSlIEn11t4agre5Vg7Fhy2CvJGyQSVt322f4n1sFpsLI7BNdXXNPljvQxSBv/e260jXoRDwAkU9vaA0mu2yh/18fm3UFlzrxBsPgwDyqiAowCICPLCdMKOG8qQAPxx/EHjAik1rLeXT60gxTFKeS1kKdF2cYZg/vj50sIUOlSYpw+qplQ+EOcwuPA912UzvcnbPCcO3zlDd6DOWLaJ/1PbLNnnUC1UH+WuOY/BqhGHk5O7i+PTsKPP4GUsSnc09LcVfAHnGAsqvixxC12mZaPAGwdVH6x2MoerNtaSA2sBT8zXGQ3v2XNdfj/s+VZblRCoqRd6NLlOJkRf1nK7iehd+J79SwTrqg1IQ4YID9nO9Lyupv8HMR5IWBvArFUcu0h4a++eKNsm+39vQeyDZ0i4UmCqhimxPd2a5n+XjHF1H2T2ZURUhz37/FGFmyhmI75oRGZtgMj7QgvjpnCTLUgnTfV3FqBiMte/DZSZAbLI6Xdr34c0TaOIHSQ7XYLAZA+tKAopY57jW/5bUlK0zNxtppXH5luE/PThR0cBh67TjxavuVcFsPARaPthJx1DDvggBwP8LpKvZu8PxdzvFijWc1DbEnm878/aMpW5Z6uNZdRHqPUTT00AUFOXkx/5PKr4U9zyr882dnqu2zDPDar0mOOt+r8uiMka2tC0s4mJwZAJ0KPsuiDr7mj00d4uX5JXVNEukYgCIIfKlI9RQ2sXPfIdMjSTMLZlJ2+1+J+HEdOk59LQ8jbbHA1PbevxA6JMlN3Hbv+iFHNZsPeh7hjgq5e5cHDrpVYxfYZZjM6YVTJPhiQIhMcUFDvM7piQwP9rnjhi2R6pvsH5eH7Ufo2TF72NgMjOCY6nrCxxGzZ3rGyCfxm1qVbfRNTL4Ifc3WG4vPzmL9f4WgRmJLKiGAj2w48u8XgbL+JcwarvlEcgWghnXVEZe/XJ3Pin2IwvhyfdQIf0MD0Dx8sP57ImsZdsUTv7x9NBvYNzBpiPP7Kikx+9lISkWxW/tceimaNShYHgULgDEHVhTBed2Lz1c0h1Dc0uKwtq34zY8CaPfgqlaIztkAIc/2tz8AzFwZ5b4jDfSgz9v5IxOexXdEvuWSok1vBav5HgHMHSTfIJ+w0rVYfkC4Y8gNqwjH7qORuqY57LhJwupA9svjciSZaiA5xgB6NHWIqEbA7FQ2xB5MJDAewTlnrV08mRgLZ9MwXbwmcgqBHlkulgDezqD80EejDsSK/O64/81zUNRrLWiIKCf7GsiAQDft+VUEBwl8ycWuNlFkeFZwemJpLx7Bak63iF+m79Gs2JpKRypkRBmxwopkPPCdM0WBIxhCpHgCOZ1xwdKip0qQBK/4b0lQOrmhZ1V7VB8vGQFhlim2wEaEAN59ToYir/TWzlsT4GV0+2/nspaGlZnMMjD2zd3H8sKUl3TiV+69RUbK0FPZuOobuw+KgPGE3nJv55yxgOt6EOMrRoM0hYFFQGQg/w087v5J+kZdF0iUoPUmZDCYyPbKKB8RUyh37kJ7Cg9/ekDWc3smvJ0LnFMfHEJeVdJxOyDAJifN1oeoWRAIQF6p7lsYx3uOTa57zGbw+XTHDk0c1Nb6oIt6o8fiA5RE9m6mQBZFez1J09XB5S4YLSKLoTVMc89sHnHZp/dkMeZKrYCOJe8TON2Q6l4EfFztLmd7QqbnXUi9BNBb2ESAELbpvCDWgQH3SCFZpCMCNix6CSqHf1/PYSdfw7iXjzQcMyeGBcGh0izRHnFV46Qsq26pEebRZm50DI66B3mJWT99Lgj3QERWEYRhV/DMgCEvVj/060W9R3cpF5NarfQUPCbWs2XWtoz1bkVN464IbklccW7f8mC9QMUe8Vpgo6z0cy4ljBZqBBMhhdNWIhzcwaZsBv0ZjBgLasx1z9V3u+YO5Nc3g6pghTg6Q295pWGRvlRbmS4msV+8jSETpjpF0vHdaiXmK+Zh4NnLWexZSKgxHtIOUMJpbkyvaN6XpDrNJC+KN8maV+HqXXgwMzxpvIDUOKxT1aPcKiVgbkOjI02LB2M97pJ43MotUP7MVbbDLh+mNqq6t8MPeguSShAjzgHYBhlm1IU8nrJlyM29Bsf+DVZTdqRpcva/BS+EkiWoao5MhAhCHOh3ll6b5PRLV6oahIjCo9jyNCTvg3ruO14uEEKGro+p4c5Kf3f903vreo8KqJheucp4DOBhwAACRtNwkBQzXlSJCau7H5dIVoPz0PVXvU8q3fKSmsvEbgo099KbwlTxZUEHJTuCjSCgon/KSu85nxtn2rzOhh6C8xLCu6cWS4aXsVrNc0i5Bg3MncVK33wkEt8ChhAj14oHrY7kGzWVWuMcnY1azEUpxScDcKAUgz5YCh84QFCjXx/l4jpcI7WR7Phjc4lv2OWSuzVNh5DwXjm/mcG9yq1vN9ay/VN2v8HrxDTtev86566ad1raUIQUtWYp4U1f31Ex69un8pFeTBeLfXa7Um3rOHR5hylQDTiHqNAU63RXYu0NSjEhwOWmYDDUL6P9raMrp1kdoE2aWUp4gXSfjc+V4f+zpJq3vPymzY/lheD9xKjkxe5YDHs7JGuYk6bjKlNmtVGu4OPpVf/IC6BgSmY22Y12mi22K7ft4fU6Syx8bJ+bypjKO0PnLQ7OeNLFmgOYFP5mcaR4+XQCJ/RYdov4EKwQ+EW5G7URgBC4SJvJISoqWYe4TY7sx7uGTzAJaWxHn9sIxtrGPxyfzeYtRGuwTQ0HOec2hmnlyp6Bpw66o6mkQ2YLmlmILqdGpjkDLctYnkyIXWrunRnl+fYqzTxjzKrRu6zb7Ljw7hwSHt7gwuHe8O1Orq2Eebm+N9lrigRKKXymo9HPJksRJ0azFkmAcSJxxZ5EqG4/FQoHlEt1WMGiUWFMiJ+CxHh3F68+r75/ynjzjhSKr7nZ8OTCDX0/cGsQwhnTIMKngyvxTh2vVkPTsb1gkpuu/sYDr5BQT4htCLSudpdpY7mrWKmtVuycfTdDUU+s+/23h8cQXwyDRrtbmaYWIFY7F0UKlyt8vHtGie2oksg4/xJm8jB81BisV5jjlbaJDg3/HFHWy/UkIwErBff0X/H2JP12qHRdXti24I/mBReFWmmHdhFyp8nWjWjEjNF52tYfPek+SAcReT7L8MdKg7blbcgTBZ4PqbxdadlRt/Y8ozmBwB/0ERCFRgaQp2KXugA9VGm3P9TcBCd6L4dJdzJ0CE7SFKRrw9Xg8YiKoiv6zgw4NfsPYZG59PMcnBLZiTmmU4QdJreiK9crZMpIUlgPZRb0MDs1ZSmooIyO49wvPqDgG1FB9+wRz4GHXL5xGtTbnO3f1R7LZZOW1v1m1ymPTvCRv9yqP032J7hYCt2QkrCLdn8ZHba7Q8bWxHurs9xoFdqKQ4ccICzG6tYpnCgE5ms0XSl1aExyUr3wn8siHGgMMxsjaueOAotgUNgCvkg/qQ39drHZnwDQ+nq8q3WROAs7Gf+bjzHdbhmjEeVDeA40sfTp0XWiKYqmSY5RqB9zEZX5q+p9FN+onIyUhZ/T7KtJ+aaasNhQJOVCd9l9e/UV+hLgwX+DMt5nzrU8b1/zcOd559iu9tWCQJGsS+U0qT22KGGsh2RMu5IhkMA2jRuPW+vFbM/uLt4IAGL5+IUAKVbRxysGtrJB+gDwbQ8QwCHx2IOFq2Vhf7ySgXjXzrrjf2MbFeVJwF+XVmNPqzDE/4avmCRgTJuJtkXcSequVw3+VhntIk3U8ibwtAMWnjvQAABp+aH2Zjl3Dt86bMp8SiFFYEAwAGmujA4RnGHjPOzfiyMGMARg9T6JmVYMSnOYeG/ThfWBmVlJz/AhLa0PMj3veIuYO7VCMGHutDIzUv+Z6bUMnulc9o83nQnOrNba2L+FJERQMcRd8XwqLx2Ps7Is4rot4HH95dVkQi5gLYCxpsS9HTuwN91Y6IPem8g2rsAzwlen4VYVJoAo8EQEMQGotBRAZcFl5zLldjxSe5mPmnpjbE5L4xCygSb+HB4ijJ04anLVECXFdjIAQkdfffT0ZGh3aOE3axyv3+DNCGX7PDQXxR6EO20cGAAEZVPMIIqO/uIyz4Vmsco7W4SXum9Bcn17rWOqtzh1o/qYjUdUkIdAwMAT270G8okWNdCHXZWNbmo5sEN4G3P8mADlBD5yW97rA5IASRWZPjbUoHm4682YOqd99XYxep9Po+h1IL6p1s/naCghcKZlk+J/IH1yHLrTZ6l2huiOHYTm3yalqdVKpy2y5RwQE+GUu5T7n2V/r8a2BV+orLM4XQc47N6Tibwp3M0YF4FW4AeEO11N9Q4EBle8p0RlRMcuBWZUYHAFX3eOpdM7xWxgqVKEyAZ31LmKgCkh/tkVWCq9P4ZrN8PbRmM2Ee0DOLIGpI2KMP/xdyRThQkJnYXvc'
state_dict = pickle.loads(bz2.decompress(base64.b64decode(state_dict_dump)))
model = DuelingDQN(actions=ACTIONS)
model.load_state_dict(state_dict)
model.eval()
myAgent = Agent(model=model, actions=ACTIONS)

def agent(obs_dict, config_dict):
    return myAgent(obs_dict, config_dict)
